/*
 * SPDX-FileCopyrightText: 2026 Espressif Systems (Shanghai) CO LTD
 *
 * SPDX-License-Identifier: CC0-1.0
 */
#include "model.h"

alignas(8) const unsigned char model_tflite[] = {
    0x1c, 0x00, 0x00, 0x00, 0x54, 0x46, 0x4c, 0x33, 0x14, 0x00, 0x20, 0x00,
    0x1c, 0x00, 0x18, 0x00, 0x14, 0x00, 0x10, 0x00, 0x0c, 0x00, 0x00, 0x00,
    0x08, 0x00, 0x04, 0x00, 0x14, 0x00, 0x00, 0x00, 0x1c, 0x00, 0x00, 0x00,
    0x88, 0x00, 0x00, 0x00, 0xe0, 0x00, 0x00, 0x00, 0x64, 0x19, 0x00, 0x00,
    0x74, 0x19, 0x00, 0x00, 0x8c, 0x2a, 0x00, 0x00, 0x03, 0x00, 0x00, 0x00,
    0x01, 0x00, 0x00, 0x00, 0x04, 0x00, 0x00, 0x00, 0x82, 0xe3, 0xff, 0xff,
    0x0c, 0x00, 0x00, 0x00, 0x1c, 0x00, 0x00, 0x00, 0x3c, 0x00, 0x00, 0x00,
    0x0f, 0x00, 0x00, 0x00, 0x73, 0x65, 0x72, 0x76, 0x69, 0x6e, 0x67, 0x5f,
    0x64, 0x65, 0x66, 0x61, 0x75, 0x6c, 0x74, 0x00, 0x01, 0x00, 0x00, 0x00,
    0x04, 0x00, 0x00, 0x00, 0x94, 0xff, 0xff, 0xff, 0x1e, 0x00, 0x00, 0x00,
    0x04, 0x00, 0x00, 0x00, 0x08, 0x00, 0x00, 0x00, 0x6f, 0x75, 0x74, 0x70,
    0x75, 0x74, 0x5f, 0x30, 0x00, 0x00, 0x00, 0x00, 0x01, 0x00, 0x00, 0x00,
    0x04, 0x00, 0x00, 0x00, 0x56, 0xe6, 0xff, 0xff, 0x04, 0x00, 0x00, 0x00,
    0x0b, 0x00, 0x00, 0x00, 0x69, 0x6e, 0x70, 0x75, 0x74, 0x5f, 0x6c, 0x61,
    0x79, 0x65, 0x72, 0x00, 0x02, 0x00, 0x00, 0x00, 0x34, 0x00, 0x00, 0x00,
    0x04, 0x00, 0x00, 0x00, 0xdc, 0xff, 0xff, 0xff, 0x21, 0x00, 0x00, 0x00,
    0x04, 0x00, 0x00, 0x00, 0x13, 0x00, 0x00, 0x00, 0x43, 0x4f, 0x4e, 0x56,
    0x45, 0x52, 0x53, 0x49, 0x4f, 0x4e, 0x5f, 0x4d, 0x45, 0x54, 0x41, 0x44,
    0x41, 0x54, 0x41, 0x00, 0x08, 0x00, 0x0c, 0x00, 0x08, 0x00, 0x04, 0x00,
    0x08, 0x00, 0x00, 0x00, 0x20, 0x00, 0x00, 0x00, 0x04, 0x00, 0x00, 0x00,
    0x13, 0x00, 0x00, 0x00, 0x6d, 0x69, 0x6e, 0x5f, 0x72, 0x75, 0x6e, 0x74,
    0x69, 0x6d, 0x65, 0x5f, 0x76, 0x65, 0x72, 0x73, 0x69, 0x6f, 0x6e, 0x00,
    0x22, 0x00, 0x00, 0x00, 0x80, 0x18, 0x00, 0x00, 0x78, 0x18, 0x00, 0x00,
    0xe8, 0x17, 0x00, 0x00, 0x98, 0x17, 0x00, 0x00, 0x68, 0x17, 0x00, 0x00,
    0x4c, 0x17, 0x00, 0x00, 0x30, 0x17, 0x00, 0x00, 0x14, 0x17, 0x00, 0x00,
    0xf8, 0x16, 0x00, 0x00, 0xdc, 0x16, 0x00, 0x00, 0xcc, 0x0c, 0x00, 0x00,
    0xdc, 0x0a, 0x00, 0x00, 0x4c, 0x09, 0x00, 0x00, 0x3c, 0x01, 0x00, 0x00,
    0x28, 0x01, 0x00, 0x00, 0x14, 0x01, 0x00, 0x00, 0x0c, 0x01, 0x00, 0x00,
    0x04, 0x01, 0x00, 0x00, 0xfc, 0x00, 0x00, 0x00, 0xf4, 0x00, 0x00, 0x00,
    0xec, 0x00, 0x00, 0x00, 0xe4, 0x00, 0x00, 0x00, 0xdc, 0x00, 0x00, 0x00,
    0xd4, 0x00, 0x00, 0x00, 0xcc, 0x00, 0x00, 0x00, 0xc4, 0x00, 0x00, 0x00,
    0xbc, 0x00, 0x00, 0x00, 0xb4, 0x00, 0x00, 0x00, 0xac, 0x00, 0x00, 0x00,
    0xa4, 0x00, 0x00, 0x00, 0x9c, 0x00, 0x00, 0x00, 0x94, 0x00, 0x00, 0x00,
    0x74, 0x00, 0x00, 0x00, 0x04, 0x00, 0x00, 0x00, 0x56, 0xe7, 0xff, 0xff,
    0x04, 0x00, 0x00, 0x00, 0x60, 0x00, 0x00, 0x00, 0x10, 0x00, 0x00, 0x00,
    0x00, 0x00, 0x00, 0x00, 0x08, 0x00, 0x0e, 0x00, 0x08, 0x00, 0x04, 0x00,
    0x08, 0x00, 0x00, 0x00, 0x10, 0x00, 0x00, 0x00, 0x24, 0x00, 0x00, 0x00,
    0x00, 0x00, 0x06, 0x00, 0x08, 0x00, 0x04, 0x00, 0x06, 0x00, 0x00, 0x00,
    0x04, 0x00, 0x00, 0x00, 0x00, 0x00, 0x00, 0x00, 0x0c, 0x00, 0x18, 0x00,
    0x14, 0x00, 0x10, 0x00, 0x0c, 0x00, 0x04, 0x00, 0x0c, 0x00, 0x00, 0x00,
    0x4b, 0xd2, 0xc0, 0xb6, 0x38, 0x26, 0x8f, 0xa1, 0x02, 0x00, 0x00, 0x00,
    0x02, 0x00, 0x00, 0x00, 0x04, 0x00, 0x00, 0x00, 0x06, 0x00, 0x00, 0x00,
    0x32, 0x2e, 0x32, 0x30, 0x2e, 0x30, 0x00, 0x00, 0xc2, 0xe7, 0xff, 0xff,
    0x04, 0x00, 0x00, 0x00, 0x10, 0x00, 0x00, 0x00, 0x31, 0x2e, 0x31, 0x30,
    0x2e, 0x30, 0x00, 0x00, 0x00, 0x00, 0x00, 0x00, 0x00, 0x00, 0x00, 0x00,
    0x98, 0xd7, 0xff, 0xff, 0x9c, 0xd7, 0xff, 0xff, 0xa0, 0xd7, 0xff, 0xff,
    0xa4, 0xd7, 0xff, 0xff, 0xa8, 0xd7, 0xff, 0xff, 0xac, 0xd7, 0xff, 0xff,
    0xb0, 0xd7, 0xff, 0xff, 0xb4, 0xd7, 0xff, 0xff, 0xb8, 0xd7, 0xff, 0xff,
    0xbc, 0xd7, 0xff, 0xff, 0xc0, 0xd7, 0xff, 0xff, 0xc4, 0xd7, 0xff, 0xff,
    0xc8, 0xd7, 0xff, 0xff, 0xcc, 0xd7, 0xff, 0xff, 0xd0, 0xd7, 0xff, 0xff,
    0xd4, 0xd7, 0xff, 0xff, 0x1e, 0xe8, 0xff, 0xff, 0x04, 0x00, 0x00, 0x00,
    0x04, 0x00, 0x00, 0x00, 0xfd, 0xff, 0xff, 0xff, 0x2e, 0xe8, 0xff, 0xff,
    0x04, 0x00, 0x00, 0x00, 0x04, 0x00, 0x00, 0x00, 0x01, 0x00, 0x00, 0x00,
    0x3e, 0xe8, 0xff, 0xff, 0x04, 0x00, 0x00, 0x00, 0x00, 0x08, 0x00, 0x00,
    0x56, 0xb1, 0xda, 0xbe, 0x19, 0xcd, 0x13, 0x3e, 0x38, 0x00, 0xb6, 0xbb,
    0x51, 0x75, 0x2c, 0x3d, 0xf7, 0xe8, 0x21, 0xbe, 0x85, 0x42, 0x35, 0xbd,
    0x4d, 0x42, 0x39, 0xbe, 0xcd, 0xd2, 0x85, 0xbe, 0xc6, 0x01, 0xa0, 0x3e,
    0x14, 0x3e, 0x00, 0x3d, 0x2f, 0xe4, 0x77, 0x3e, 0x39, 0xa4, 0x24, 0xbe,
    0x25, 0xcb, 0x29, 0xbe, 0xd7, 0xde, 0xbc, 0x3e, 0x28, 0x91, 0xa1, 0xbe,
    0x75, 0x1d, 0xe3, 0x3d, 0xdc, 0x27, 0x68, 0xbe, 0x75, 0xb6, 0x2f, 0x3e,
    0x12, 0x45, 0x28, 0xbe, 0xaa, 0x17, 0x27, 0x3e, 0xe7, 0xf1, 0xe4, 0x3e,
    0xb5, 0x48, 0xbe, 0xbd, 0x0c, 0xbe, 0x82, 0xbe, 0x65, 0x63, 0xab, 0x3e,
    0x53, 0x57, 0x8c, 0xbe, 0xaf, 0xef, 0x9a, 0xbd, 0x69, 0xa7, 0x54, 0xbe,
    0x5d, 0x72, 0x68, 0x3e, 0xb0, 0x1e, 0x39, 0xbe, 0x58, 0x00, 0x38, 0xbe,
    0xb4, 0x82, 0x4e, 0x3e, 0x5e, 0xca, 0x8d, 0x3b, 0xf3, 0x13, 0x2c, 0x3e,
    0x6d, 0xa8, 0x14, 0x3e, 0xec, 0x25, 0x5b, 0x3d, 0xd0, 0x25, 0x97, 0xbe,
    0x74, 0xdb, 0xf1, 0x3d, 0xde, 0x32, 0x8f, 0x3c, 0xc3, 0xf3, 0x97, 0xbe,
    0x76, 0xba, 0xda, 0xbd, 0x5d, 0x2a, 0x7f, 0x3e, 0xaa, 0x4e, 0x21, 0xbd,
    0xd2, 0x6c, 0xc1, 0xbb, 0xd8, 0x65, 0x8f, 0x3d, 0x68, 0xa9, 0x2a, 0x3e,
    0x80, 0x9a, 0x23, 0x3e, 0xc7, 0x48, 0x9e, 0x3c, 0x4e, 0x1f, 0x8d, 0xbe,
    0x6e, 0xdd, 0xa4, 0x3e, 0xbe, 0x3b, 0xb4, 0x3d, 0x56, 0x03, 0xa3, 0xbd,
    0x16, 0x4e, 0xa8, 0xbe, 0xf4, 0x33, 0x32, 0xbe, 0x1a, 0xd2, 0xb8, 0x3c,
    0x47, 0x46, 0x5f, 0xbc, 0xcb, 0x93, 0x40, 0xbc, 0xa9, 0x0c, 0xe6, 0xbd,
    0x44, 0xff, 0xbc, 0xbe, 0xa9, 0xc4, 0x82, 0x3e, 0x08, 0xe5, 0x43, 0x3e,
    0xd3, 0xcc, 0x7a, 0x3e, 0x03, 0xe0, 0x87, 0xbe, 0x19, 0x67, 0x67, 0x3d,
    0x0a, 0xfe, 0xb1, 0x3e, 0x1a, 0x27, 0xa4, 0xbe, 0x0c, 0x09, 0x94, 0x3e,
    0xd2, 0x26, 0x69, 0xbd, 0xf6, 0xf6, 0x7d, 0x3c, 0x67, 0x43, 0x66, 0xbd,
    0x33, 0xcd, 0x62, 0x3c, 0x4c, 0x3d, 0x38, 0xbe, 0x9c, 0x18, 0x28, 0xbc,
    0xbc, 0x8b, 0xfd, 0xbd, 0xb9, 0xe2, 0x88, 0xbe, 0xb4, 0x5d, 0x17, 0xbe,
    0x01, 0x10, 0xb4, 0xbe, 0x38, 0xcd, 0x94, 0xbe, 0x52, 0x04, 0x6b, 0xbe,
    0x06, 0x29, 0xa0, 0x3e, 0xaa, 0x0a, 0xa8, 0x3e, 0xff, 0x8e, 0x73, 0xbe,
    0xda, 0x11, 0x45, 0x3e, 0xa1, 0x85, 0xcb, 0xbe, 0xc5, 0x21, 0xa9, 0x3b,
    0xf4, 0x79, 0xb9, 0xbe, 0x40, 0x6f, 0x36, 0x3e, 0xab, 0xd3, 0xd4, 0xbe,
    0xd6, 0x90, 0xbf, 0x3e, 0x12, 0xcc, 0x45, 0x3e, 0x7c, 0x13, 0x2e, 0xbe,
    0x98, 0xcc, 0x62, 0x3e, 0x66, 0x43, 0x6c, 0xbe, 0xb9, 0x5d, 0xcf, 0xbd,
    0x31, 0x09, 0x26, 0x3e, 0x3e, 0xdd, 0x2e, 0xbe, 0xa3, 0xd2, 0x0d, 0x3e,
    0xfb, 0x03, 0x5a, 0x3d, 0x7e, 0x49, 0xa2, 0xbd, 0x22, 0x7b, 0x00, 0xbe,
    0x18, 0x62, 0x5d, 0x3e, 0x36, 0xc2, 0x40, 0x3e, 0xb0, 0x92, 0x5f, 0x3e,
    0xa9, 0x4c, 0xae, 0x3e, 0x0c, 0x5d, 0x57, 0x3e, 0xd6, 0xa6, 0x90, 0x3e,
    0xe2, 0xc3, 0x10, 0x3e, 0x2b, 0x7d, 0x7a, 0xbe, 0xe6, 0x82, 0x79, 0x3e,
    0x60, 0x04, 0x81, 0x3e, 0xbb, 0x65, 0xd3, 0xbd, 0x99, 0x40, 0xae, 0xbe,
    0x5a, 0xd5, 0x61, 0xbe, 0x12, 0x35, 0xf7, 0xbc, 0x3a, 0x2b, 0xdc, 0x3b,
    0x71, 0xa0, 0x97, 0xbe, 0x8a, 0xe8, 0x0b, 0x3e, 0x60, 0xec, 0x02, 0xbe,
    0xd6, 0x25, 0xaa, 0xbe, 0xf9, 0x0f, 0x9e, 0xbe, 0x65, 0xd5, 0xb7, 0x3e,
    0xd8, 0xfa, 0xa8, 0x3e, 0x00, 0x57, 0x06, 0x3e, 0x93, 0x6f, 0x7f, 0xbd,
    0xff, 0x4d, 0x5e, 0x3e, 0xa6, 0xdf, 0xa5, 0x3e, 0x57, 0x6a, 0x84, 0xbe,
    0xd3, 0xa3, 0x84, 0x3e, 0x50, 0xf9, 0xc1, 0x3d, 0x06, 0x6b, 0x4e, 0xbe,
    0xf6, 0x47, 0xf8, 0xbe, 0x7f, 0xf9, 0x0b, 0xbc, 0x25, 0xb7, 0x9a, 0x3e,
    0xb7, 0xdf, 0x1b, 0xbd, 0xff, 0x8e, 0x84, 0xbe, 0xea, 0xa3, 0x13, 0x3e,
    0x11, 0x26, 0xf5, 0xbd, 0xd5, 0xd2, 0x50, 0xbd, 0x4e, 0xf3, 0x11, 0x3e,
    0x57, 0x42, 0xb3, 0x3e, 0xc6, 0xca, 0x66, 0xbe, 0xd6, 0x25, 0xa3, 0x3d,
    0x8c, 0xad, 0x72, 0xbe, 0xb1, 0xe4, 0x3c, 0x3e, 0xfe, 0xfe, 0x96, 0xbe,
    0xdb, 0x72, 0x39, 0xbe, 0xda, 0x90, 0xc1, 0x3e, 0x2c, 0x2d, 0xa4, 0xbe,
    0xf8, 0x44, 0x6e, 0x3e, 0xb3, 0x56, 0xaa, 0x3e, 0x41, 0x03, 0xae, 0xbb,
    0xdb, 0xee, 0x24, 0xbe, 0x99, 0x86, 0xa3, 0xbd, 0xd9, 0x62, 0x97, 0xbe,
    0x36, 0x92, 0x59, 0x3d, 0x62, 0xdb, 0xe5, 0xbd, 0xa6, 0xdf, 0x30, 0x3e,
    0x7c, 0x1b, 0x9d, 0x3e, 0x26, 0x18, 0x93, 0xbe, 0x3c, 0x76, 0x94, 0x3e,
    0xb7, 0x40, 0x41, 0xbe, 0x72, 0x90, 0x89, 0xbe, 0x7f, 0xdf, 0x67, 0xbd,
    0xcd, 0xc2, 0x70, 0x3e, 0x33, 0x1e, 0xba, 0xbd, 0x39, 0x7e, 0x05, 0x3e,
    0x88, 0x31, 0x50, 0xbe, 0xab, 0xd5, 0x8e, 0x3e, 0x4b, 0x71, 0x0c, 0xbc,
    0x63, 0x86, 0x4c, 0x3e, 0xac, 0xfb, 0x4f, 0xbe, 0x05, 0xcf, 0x98, 0x3e,
    0xde, 0x00, 0x84, 0xbe, 0x39, 0xc5, 0xa8, 0x3d, 0x4c, 0x68, 0x16, 0xbe,
    0xdf, 0x0f, 0x37, 0xbd, 0x0e, 0xf0, 0x66, 0xbe, 0xf4, 0x69, 0x7e, 0xbe,
    0xb5, 0x29, 0x56, 0x3e, 0x40, 0x27, 0x92, 0xbe, 0x88, 0xe0, 0x80, 0xbd,
    0x4d, 0x14, 0xc7, 0x3d, 0x86, 0xe0, 0x80, 0x3e, 0x18, 0x70, 0xc4, 0xbe,
    0x2f, 0xbc, 0x94, 0x3e, 0xd6, 0xcb, 0x88, 0x3e, 0xd4, 0x60, 0x8b, 0x3e,
    0xe6, 0xce, 0xa0, 0x3d, 0xf3, 0xf5, 0x22, 0xbe, 0xd7, 0xf7, 0xe5, 0x3d,
    0x47, 0x1f, 0x88, 0xbe, 0x3f, 0x40, 0x36, 0xbe, 0xe4, 0x00, 0xbf, 0xbe,
    0x9d, 0x74, 0xf3, 0xbd, 0xc6, 0x52, 0x99, 0x3e, 0x73, 0xf5, 0x1d, 0x3e,
    0xd6, 0x7d, 0x8a, 0x3e, 0x7f, 0xb0, 0xc3, 0x3d, 0xd3, 0xfb, 0x7b, 0x3e,
    0x2f, 0x5b, 0x6a, 0x3e, 0x10, 0x51, 0xb7, 0xbd, 0xe9, 0xf2, 0x28, 0x3e,
    0xb1, 0xe9, 0x5f, 0xbd, 0x8b, 0x01, 0x9b, 0xbe, 0x7f, 0x9d, 0x63, 0xbe,
    0x66, 0x09, 0xcf, 0xbc, 0x47, 0x5b, 0x2c, 0xbe, 0xaf, 0x9c, 0x1d, 0xbc,
    0xb1, 0x4e, 0x4a, 0x3e, 0x18, 0xe6, 0x0a, 0x3d, 0x68, 0xb6, 0xba, 0x3a,
    0x4c, 0xe9, 0x8a, 0x3e, 0x24, 0x03, 0x03, 0x3e, 0xa7, 0x59, 0xc8, 0xbc,
    0xcf, 0xac, 0x2b, 0xbc, 0x2b, 0xb0, 0x8b, 0x3e, 0x79, 0x9c, 0x9f, 0xbe,
    0x6c, 0xac, 0x01, 0xbe, 0x7d, 0xba, 0xa9, 0x3e, 0x8e, 0x93, 0xd4, 0x3d,
    0x8e, 0xf4, 0x87, 0xbe, 0x93, 0x1d, 0xa0, 0xbe, 0xb4, 0x64, 0xc4, 0x3d,
    0x20, 0xc4, 0x72, 0x3d, 0x62, 0x3f, 0x27, 0x3e, 0x2e, 0x72, 0xc5, 0xbc,
    0x59, 0xdc, 0xeb, 0x3d, 0x42, 0x2c, 0x88, 0xbc, 0x10, 0xe5, 0xe2, 0xbd,
    0x60, 0x5b, 0x00, 0xbe, 0xe6, 0x00, 0x51, 0xbc, 0x87, 0x98, 0x9d, 0xbe,
    0xbf, 0xbb, 0x84, 0xbe, 0x3a, 0x8c, 0xa3, 0x3e, 0x72, 0x35, 0xaf, 0xbd,
    0x87, 0x21, 0x0a, 0x3e, 0x11, 0x7c, 0x3b, 0xbe, 0xff, 0x6f, 0x43, 0x3e,
    0xd9, 0xf2, 0x3f, 0xbe, 0x6f, 0xc3, 0xa4, 0xbd, 0xc7, 0xfb, 0x50, 0xbe,
    0xc6, 0xcb, 0xd4, 0xbd, 0xa5, 0x65, 0xb5, 0x3e, 0xbb, 0x91, 0x8f, 0xbe,
    0x56, 0xe1, 0xd0, 0xbc, 0x5a, 0x01, 0x7e, 0x3d, 0x1c, 0xa9, 0x41, 0x3d,
    0xa5, 0x28, 0x24, 0x3e, 0x84, 0x52, 0x31, 0x3d, 0x28, 0xc6, 0x27, 0xbe,
    0xcb, 0xcc, 0xd1, 0xbe, 0x86, 0xec, 0xf5, 0xbd, 0x1c, 0x07, 0x33, 0xbd,
    0x57, 0x78, 0x15, 0x3e, 0x10, 0xae, 0x3f, 0x3e, 0x5d, 0x7f, 0x48, 0x3e,
    0xac, 0xc1, 0xa0, 0x3e, 0xf8, 0xba, 0x3e, 0x3e, 0x4d, 0xe1, 0x61, 0xbe,
    0x0c, 0x0d, 0x44, 0x3e, 0x9c, 0xd7, 0xd4, 0xbc, 0x81, 0xf9, 0xe3, 0x3c,
    0x40, 0x9d, 0x27, 0xbe, 0xe7, 0xa8, 0x01, 0x3e, 0x8f, 0xf7, 0x5a, 0x3e,
    0xa2, 0x06, 0x42, 0xbd, 0xe5, 0x62, 0xa3, 0xbe, 0x98, 0xf5, 0xe8, 0xbd,
    0x05, 0x46, 0x65, 0xbe, 0x97, 0xed, 0x86, 0x3e, 0xac, 0x15, 0x0a, 0xbe,
    0x2f, 0x9a, 0x75, 0xbc, 0x16, 0xa0, 0x6a, 0x3e, 0x2b, 0xc1, 0x0a, 0x3e,
    0x15, 0xee, 0xae, 0x3e, 0x7c, 0x4f, 0xff, 0x3d, 0x06, 0x5b, 0x0b, 0xbd,
    0x88, 0x1f, 0xb4, 0xbd, 0x81, 0x78, 0x7a, 0xbe, 0x59, 0x0b, 0x37, 0xbe,
    0xc0, 0xbe, 0x6f, 0xbd, 0xa5, 0x70, 0x94, 0x3d, 0xb8, 0x6a, 0x8e, 0xbb,
    0x52, 0x92, 0x1a, 0xbe, 0x83, 0x77, 0x88, 0x3e, 0xac, 0x0c, 0xc6, 0x3d,
    0x9d, 0x82, 0x20, 0x3e, 0x22, 0xaa, 0x1e, 0xbe, 0x21, 0x38, 0x32, 0x3d,
    0x22, 0xd0, 0x4e, 0xbd, 0xff, 0x5d, 0x44, 0xbe, 0x8d, 0x62, 0x7b, 0x3d,
    0x33, 0x22, 0x3c, 0x3e, 0xb2, 0x2f, 0x55, 0xbe, 0xdc, 0xb4, 0xda, 0x3d,
    0x68, 0x23, 0xa6, 0x3e, 0xdd, 0x42, 0x82, 0xbe, 0xa8, 0x70, 0x0d, 0x3e,
    0x7f, 0x7f, 0x8b, 0xbd, 0x7d, 0xc8, 0x11, 0xbd, 0xf2, 0x08, 0x24, 0xbe,
    0xb0, 0x6c, 0x68, 0xbe, 0xbc, 0xc7, 0x02, 0xbe, 0xb0, 0x76, 0x43, 0x3e,
    0x8f, 0x7c, 0x93, 0xbe, 0xae, 0x5e, 0xae, 0x3d, 0xd6, 0x41, 0x8f, 0xbd,
    0xb8, 0xc0, 0x35, 0x3e, 0xe7, 0xe3, 0xcf, 0xbe, 0x6e, 0xf7, 0xb5, 0xbe,
    0xfd, 0x7d, 0x0f, 0xbe, 0x3c, 0xc8, 0xfa, 0x3d, 0xde, 0x7e, 0x32, 0x3e,
    0x22, 0x54, 0x7f, 0x3e, 0x5d, 0x6b, 0x4e, 0x3e, 0xef, 0xc7, 0x89, 0x3d,
    0x94, 0xcd, 0x61, 0x3e, 0x8c, 0x5d, 0xcf, 0xbd, 0xd4, 0x11, 0x86, 0xbe,
    0x87, 0xd2, 0x8c, 0x3e, 0x67, 0xe7, 0x6c, 0xbd, 0xcc, 0xcb, 0xed, 0xbe,
    0xcc, 0x18, 0xd4, 0x3e, 0x6c, 0x50, 0xe8, 0xbe, 0x1c, 0x54, 0x18, 0xbd,
    0xf3, 0xee, 0x9e, 0x3d, 0xde, 0xeb, 0x83, 0xbe, 0x51, 0x7f, 0xcc, 0xbe,
    0x67, 0x98, 0x68, 0x3d, 0x42, 0x0d, 0x18, 0xbe, 0xf1, 0x36, 0x80, 0x3e,
    0xe2, 0xc8, 0x8b, 0x3e, 0x23, 0x63, 0x7c, 0x3e, 0x76, 0x39, 0xb0, 0xbe,
    0x95, 0x99, 0xa1, 0xbe, 0x12, 0xc4, 0x85, 0xbd, 0x00, 0xc3, 0x53, 0xbc,
    0x60, 0x72, 0x76, 0x3d, 0x40, 0x8d, 0x86, 0x3d, 0x24, 0x60, 0xae, 0xbd,
    0x55, 0x96, 0x8c, 0xbe, 0xd8, 0xc6, 0xa1, 0xbe, 0x18, 0xd5, 0x3f, 0x3d,
    0xb7, 0x1d, 0x71, 0xbe, 0x91, 0x57, 0xad, 0xbe, 0x1f, 0x69, 0xa7, 0xbe,
    0xc0, 0x20, 0x8d, 0xbc, 0xd4, 0xf3, 0xb3, 0xbd, 0x47, 0x74, 0x39, 0xbe,
    0xb8, 0x2f, 0xee, 0xbd, 0xff, 0x7c, 0x81, 0x3e, 0x89, 0x59, 0x4a, 0xbe,
    0xef, 0x5c, 0x82, 0x3e, 0xe0, 0x0d, 0x3b, 0x3e, 0xcb, 0x8b, 0x39, 0xbe,
    0xb3, 0xa0, 0xbf, 0x3e, 0xbd, 0xe8, 0x88, 0xbd, 0x5f, 0x92, 0xc4, 0x3e,
    0xb4, 0x9f, 0x53, 0xbe, 0x05, 0xad, 0x64, 0x3e, 0x9a, 0x2b, 0xa7, 0xbe,
    0xc2, 0x08, 0x47, 0x3e, 0x86, 0x98, 0xa2, 0xbd, 0xf7, 0x2a, 0x84, 0xbd,
    0x16, 0x75, 0x87, 0xbe, 0x4a, 0xc7, 0xf3, 0xbd, 0xa1, 0x2a, 0x14, 0xbe,
    0x1c, 0x25, 0xae, 0xbd, 0x79, 0xc6, 0x19, 0xbe, 0x74, 0xc9, 0xbb, 0x3e,
    0xe3, 0xcf, 0xde, 0xbe, 0xb1, 0x54, 0x8b, 0x3d, 0x5d, 0x10, 0x25, 0xbe,
    0xc3, 0xa1, 0xbd, 0xbe, 0x10, 0xd1, 0xf8, 0x3d, 0xa5, 0xd3, 0x63, 0x3c,
    0x1b, 0x69, 0xe7, 0xbd, 0xb4, 0xdc, 0xa3, 0xbe, 0xee, 0xec, 0xeb, 0x3c,
    0x4a, 0xa0, 0xa7, 0x3e, 0x94, 0xe2, 0x82, 0x3e, 0x64, 0x8f, 0xa4, 0x3d,
    0xb6, 0x68, 0x94, 0x3d, 0x1f, 0x47, 0x67, 0x3e, 0xd4, 0xc2, 0x98, 0x3e,
    0xd5, 0x89, 0x6e, 0x3e, 0x6c, 0xc8, 0xf6, 0x3c, 0x5a, 0xb9, 0x14, 0xbd,
    0x87, 0x9c, 0x09, 0x3c, 0x6e, 0x1d, 0xc4, 0xbe, 0x52, 0xb3, 0xac, 0xbe,
    0xf2, 0x6d, 0x53, 0xbe, 0xde, 0x03, 0x7f, 0x3e, 0x2f, 0x53, 0x86, 0xbe,
    0xcf, 0x39, 0xf9, 0xbd, 0xae, 0xb8, 0xe7, 0xbd, 0x1c, 0xa5, 0x85, 0x3e,
    0x4e, 0xb1, 0x5f, 0x3e, 0x6a, 0xea, 0xc4, 0xbc, 0x6b, 0x47, 0x6c, 0xbe,
    0xf1, 0xfd, 0xea, 0xbd, 0x43, 0xac, 0x8b, 0xbe, 0xfa, 0x5a, 0x99, 0x3e,
    0x2f, 0x08, 0xa7, 0xbc, 0xc8, 0x5b, 0xb3, 0x3e, 0x4e, 0x24, 0xaf, 0x3e,
    0x2c, 0xc1, 0xbb, 0x3e, 0x9a, 0x95, 0x72, 0x3b, 0xa5, 0xfc, 0x8b, 0x3b,
    0xc4, 0xdf, 0x87, 0xbe, 0xb7, 0xd8, 0xd9, 0x3e, 0x91, 0xa6, 0x9a, 0x3d,
    0x2a, 0x47, 0x8f, 0x3e, 0x57, 0x2d, 0xa1, 0xbe, 0xea, 0x36, 0x03, 0x3e,
    0x05, 0xe5, 0x64, 0xbc, 0x6d, 0x1f, 0x64, 0xbe, 0x5f, 0x0e, 0xb6, 0xbe,
    0xe2, 0xe3, 0xe7, 0x3a, 0x72, 0x94, 0x44, 0xbe, 0xbb, 0x6f, 0x95, 0xbe,
    0x63, 0xa1, 0x93, 0x3e, 0x4b, 0x02, 0x9e, 0x3d, 0x29, 0x31, 0x14, 0x3d,
    0x68, 0xe6, 0xcd, 0xbd, 0xea, 0x89, 0xb1, 0xbe, 0x55, 0xe0, 0xcb, 0x3d,
    0x9b, 0xd2, 0xa6, 0x3d, 0x12, 0x9b, 0x34, 0x3c, 0x1a, 0x04, 0x47, 0xbe,
    0xcb, 0x16, 0xf8, 0xbc, 0x83, 0x92, 0x2b, 0x3e, 0xf9, 0x38, 0xab, 0x3e,
    0xca, 0x83, 0x64, 0xbe, 0xfe, 0x6d, 0xfc, 0x3d, 0x4b, 0xce, 0x00, 0x3e,
    0x47, 0xba, 0x67, 0x3e, 0x22, 0x69, 0xdc, 0x3d, 0x6f, 0xeb, 0x04, 0x3e,
    0x73, 0xe4, 0x41, 0x3e, 0x0d, 0x52, 0x8c, 0xbd, 0x20, 0xd8, 0xd9, 0x3d,
    0x9e, 0x5b, 0x3b, 0x3e, 0xf0, 0x01, 0x9f, 0xbd, 0x17, 0xe5, 0x27, 0x3e,
    0xe3, 0x14, 0x30, 0x3e, 0x88, 0xbf, 0xac, 0xbe, 0xd3, 0xa8, 0x18, 0x3c,
    0x63, 0xf4, 0x6e, 0x3d, 0x4a, 0x22, 0xb1, 0xbe, 0x73, 0xde, 0x93, 0xbe,
    0xe4, 0x7b, 0x84, 0xbe, 0x05, 0xd9, 0xba, 0xbd, 0x6d, 0x59, 0xc2, 0xbe,
    0x54, 0x8d, 0x85, 0xbe, 0xce, 0x55, 0x18, 0x3e, 0x0a, 0x62, 0x91, 0xbe,
    0x4f, 0x11, 0x26, 0xbe, 0x15, 0x67, 0x2c, 0x3d, 0xf7, 0x10, 0x1a, 0xbe,
    0x46, 0x02, 0x4d, 0x3e, 0x31, 0xac, 0x68, 0x3e, 0xfe, 0x63, 0x80, 0x3e,
    0x0a, 0x00, 0xb7, 0xbd, 0x98, 0x27, 0x76, 0x3e, 0x71, 0x1c, 0x61, 0xbe,
    0xca, 0x88, 0x45, 0xbe, 0x94, 0x94, 0x53, 0x3e, 0xac, 0x79, 0x13, 0xbe,
    0x07, 0x56, 0x0c, 0xbd, 0xea, 0xa7, 0xc2, 0xbc, 0x98, 0x5f, 0x09, 0xbe,
    0x26, 0x02, 0x03, 0xbd, 0x2f, 0x2d, 0x02, 0xbe, 0xd6, 0x44, 0x5c, 0xbe,
    0x67, 0x94, 0x8e, 0x3e, 0x7a, 0x0f, 0x62, 0x3e, 0xad, 0x11, 0x15, 0xbe,
    0x4e, 0x5b, 0x8e, 0xbe, 0x64, 0x10, 0x2f, 0xbe, 0x41, 0x7c, 0x93, 0x3e,
    0xd0, 0x12, 0x9a, 0xbe, 0x62, 0x84, 0x00, 0xbe, 0xbe, 0xa7, 0x1b, 0xbe,
    0x4c, 0xf2, 0x60, 0xbd, 0xb8, 0x5d, 0x0c, 0x3d, 0xba, 0xf8, 0xe4, 0x3e,
    0x70, 0xef, 0x3b, 0xbe, 0x03, 0xb9, 0xb8, 0xbd, 0x1f, 0xe2, 0x45, 0xbd,
    0xe1, 0xe5, 0x8b, 0xbd, 0x3e, 0x0c, 0x70, 0xbe, 0x38, 0x45, 0x49, 0x3e,
    0x92, 0x06, 0xa6, 0xbe, 0x6a, 0x6c, 0x61, 0x3e, 0x68, 0x13, 0x30, 0x3e,
    0xae, 0xf7, 0x5d, 0x3e, 0xe1, 0x7d, 0x53, 0x3e, 0x02, 0x3d, 0x52, 0xbe,
    0x34, 0xd8, 0x32, 0x3e, 0x7c, 0xda, 0x65, 0x3e, 0xee, 0xf1, 0x83, 0xbd,
    0xb5, 0x0a, 0x96, 0xbc, 0xee, 0x6e, 0x78, 0xbe, 0xf7, 0xc6, 0xa7, 0x3d,
    0xec, 0xeb, 0x4c, 0xbe, 0x14, 0x6b, 0x1e, 0xbe, 0xb1, 0x00, 0x0f, 0xbe,
    0xb3, 0x1e, 0x25, 0x3e, 0xc2, 0x18, 0x79, 0xbe, 0xa8, 0x2b, 0x3d, 0xbd,
    0xfa, 0xca, 0x91, 0x3e, 0x3a, 0x0a, 0x39, 0xbe, 0x4a, 0xf0, 0xff, 0xff,
    0x04, 0x00, 0x00, 0x00, 0x80, 0x01, 0x00, 0x00, 0x55, 0x8c, 0x8b, 0xbd,
    0x73, 0xe8, 0xd9, 0x3d, 0x0e, 0xec, 0xa5, 0x3d, 0x5b, 0xb6, 0x97, 0x3c,
    0xbb, 0x76, 0x93, 0xbe, 0xa5, 0x03, 0x68, 0x3e, 0x71, 0x77, 0x9e, 0xbe,
    0x60, 0xcc, 0x55, 0x3d, 0xf1, 0x8f, 0x0f, 0x3e, 0x6b, 0xdb, 0xe1, 0xbe,
    0x5c, 0xa7, 0xa9, 0x3e, 0x88, 0xab, 0x8b, 0x3d, 0x92, 0x4e, 0x33, 0xbd,
    0x89, 0x84, 0xdd, 0xbd, 0xe6, 0xa0, 0x90, 0x3e, 0xd2, 0x5f, 0x5a, 0x3e,
    0xb1, 0x97, 0x42, 0x3e, 0x87, 0x81, 0x72, 0xbe, 0x12, 0x07, 0x9e, 0xbd,
    0xbb, 0xa5, 0xb8, 0x3e, 0x0c, 0x63, 0x6f, 0xbe, 0x29, 0xab, 0x37, 0xbe,
    0xb3, 0x80, 0x86, 0x3b, 0xff, 0x1c, 0xdf, 0x3d, 0x98, 0x09, 0x12, 0xbe,
    0x5d, 0x8f, 0x9c, 0xbe, 0x2a, 0x76, 0x98, 0xbd, 0x89, 0xad, 0xfb, 0x3d,
    0x56, 0x25, 0xa7, 0x3a, 0x8f, 0x27, 0x6b, 0xbe, 0x0d, 0x00, 0x62, 0xbf,
    0x7c, 0xf9, 0xb8, 0xbe, 0x78, 0xdf, 0x8e, 0x3e, 0x59, 0x56, 0x2a, 0xbf,
    0xb8, 0xd1, 0x9a, 0x3d, 0xa1, 0xef, 0x35, 0xbe, 0xd4, 0x61, 0x83, 0xbd,
    0xcb, 0x9f, 0x43, 0xbe, 0xa7, 0x8d, 0x03, 0x3e, 0x33, 0xdd, 0x5d, 0xbe,
    0xf1, 0xb8, 0xd2, 0x3e, 0x77, 0x6f, 0xf8, 0xbe, 0xee, 0xc5, 0xab, 0x3e,
    0x50, 0xd0, 0xf6, 0xbd, 0x56, 0xb1, 0x7e, 0xbe, 0x81, 0xcf, 0x87, 0x3e,
    0xd2, 0xbd, 0xa2, 0x3e, 0xce, 0x0a, 0x7f, 0xbd, 0x5e, 0x8c, 0x89, 0xbe,
    0x1c, 0x70, 0x4d, 0xbe, 0xdb, 0x0e, 0xca, 0xbc, 0xc0, 0x0a, 0xa2, 0xbe,
    0x88, 0xfc, 0x06, 0xbf, 0xc6, 0x90, 0x22, 0x3e, 0xa0, 0x2d, 0xa5, 0x3d,
    0xf4, 0x1c, 0xe8, 0x3d, 0x7c, 0xab, 0x7d, 0x3e, 0x2e, 0xec, 0xab, 0x3e,
    0x86, 0xea, 0x94, 0xbc, 0xa4, 0xed, 0x20, 0x3e, 0x0c, 0x1c, 0xb0, 0xbe,
    0x01, 0xc4, 0xca, 0xbe, 0xda, 0xc2, 0x9d, 0xbf, 0x18, 0xe2, 0x84, 0xbe,
    0x8c, 0x48, 0x76, 0x3e, 0x51, 0xef, 0x08, 0x3f, 0x46, 0x75, 0x1e, 0x3e,
    0xca, 0x08, 0xab, 0xbe, 0xb1, 0xbd, 0x90, 0x3c, 0xea, 0xa6, 0x57, 0x3e,
    0xd3, 0x92, 0x12, 0x3e, 0x59, 0xd9, 0xa0, 0xbc, 0xe0, 0xfd, 0xbe, 0xbd,
    0xb9, 0x08, 0x30, 0x3e, 0x83, 0x58, 0x7a, 0xbd, 0x3b, 0xd7, 0xd3, 0x3e,
    0x27, 0x6d, 0x93, 0x3e, 0x2f, 0x9d, 0xa1, 0x3d, 0x4b, 0xb0, 0xe0, 0x3e,
    0x8b, 0x4e, 0x86, 0x3e, 0x8e, 0xb5, 0x5b, 0xbe, 0x0e, 0x9f, 0x9f, 0x3a,
    0x3e, 0x0b, 0xa6, 0x3d, 0x78, 0x7b, 0xf4, 0xbb, 0xb8, 0xfe, 0x56, 0x3c,
    0xc2, 0x0c, 0x07, 0x3e, 0x83, 0x99, 0x88, 0xbe, 0x32, 0xbe, 0x9c, 0xbe,
    0x99, 0x4e, 0x00, 0xbe, 0xce, 0x44, 0x8b, 0x3e, 0x0c, 0x34, 0x52, 0x3e,
    0x20, 0x16, 0x89, 0x3e, 0xaf, 0xa9, 0x8e, 0x3e, 0x14, 0x04, 0x05, 0xbd,
    0x72, 0x8f, 0x3d, 0x3f, 0x4f, 0x78, 0x8a, 0x3d, 0xd6, 0xf1, 0xff, 0xff,
    0x04, 0x00, 0x00, 0x00, 0xe0, 0x01, 0x00, 0x00, 0x02, 0x0f, 0x74, 0xbe,
    0xb9, 0x03, 0xf4, 0xbd, 0x71, 0x77, 0x9e, 0xbe, 0x27, 0xb0, 0xdb, 0xbc,
    0x11, 0xb1, 0xa3, 0x3e, 0xd5, 0x44, 0x4a, 0xbe, 0xcb, 0x9a, 0x31, 0xbe,
    0x76, 0xaf, 0x38, 0xbe, 0x5a, 0xe7, 0x81, 0xbe, 0x1d, 0x0f, 0x6d, 0xbe,
    0x6e, 0x3c, 0x54, 0x3e, 0xba, 0xe1, 0x99, 0x3e, 0x4c, 0x9b, 0x0c, 0x3e,
    0x39, 0xc2, 0x45, 0xbe, 0x9f, 0x1b, 0x19, 0xbe, 0xb4, 0x6a, 0x9c, 0x3e,
    0x75, 0x08, 0x78, 0xbd, 0x15, 0x2a, 0x86, 0x3e, 0xaa, 0x2f, 0x40, 0x3e,
    0x48, 0xc2, 0xb4, 0x3d, 0x4b, 0x38, 0x90, 0x3e, 0x18, 0x6f, 0xd8, 0xbd,
    0x19, 0x07, 0x4f, 0xbc, 0xb2, 0x4c, 0x8a, 0xbd, 0xc6, 0x28, 0xb1, 0x3d,
    0x60, 0xf3, 0x3d, 0x3e, 0x8e, 0x45, 0x8d, 0x3e, 0xf1, 0x76, 0x75, 0x3d,
    0x59, 0x57, 0x3b, 0xbe, 0xdd, 0x02, 0x44, 0xbd, 0xf8, 0xe4, 0x97, 0xbe,
    0x22, 0x65, 0x6a, 0x3e, 0x90, 0x9f, 0x20, 0xbe, 0x55, 0xde, 0x2f, 0x3e,
    0x1d, 0x29, 0xf1, 0xbd, 0x48, 0x80, 0x87, 0xbe, 0xc0, 0x59, 0xff, 0x3d,
    0xf5, 0xac, 0xe5, 0xbd, 0xb6, 0x34, 0x42, 0xbb, 0xdc, 0x7b, 0xbc, 0x3d,
    0xe8, 0x68, 0x8e, 0xbe, 0xb1, 0x8b, 0x51, 0xbe, 0x47, 0xa2, 0xa6, 0x3d,
    0xa1, 0xce, 0xef, 0xbd, 0x4d, 0xe5, 0x45, 0x3e, 0x91, 0x1f, 0x14, 0x3e,
    0xff, 0x72, 0x8e, 0x3e, 0xa5, 0x38, 0x99, 0x3b, 0x52, 0xb5, 0x4e, 0xbe,
    0xcf, 0x91, 0x11, 0xbe, 0x56, 0x8f, 0xac, 0xbe, 0xef, 0xee, 0x59, 0xbe,
    0xcb, 0xd3, 0x40, 0x3c, 0xba, 0x1f, 0x9b, 0xbd, 0x73, 0xe4, 0x19, 0x3d,
    0x0e, 0x12, 0xf0, 0x3d, 0xc6, 0x89, 0x8c, 0xbc, 0x68, 0x82, 0xa1, 0x3a,
    0xc9, 0x70, 0x56, 0x3e, 0xb3, 0xb3, 0x2f, 0xba, 0x1e, 0x6f, 0x59, 0x3e,
    0x7b, 0x39, 0xa9, 0x3e, 0x9e, 0xa2, 0xad, 0x3d, 0x3f, 0x8e, 0x95, 0x3e,
    0xad, 0x0e, 0x62, 0xbe, 0xfb, 0x89, 0x81, 0xbe, 0x2f, 0xa5, 0x1b, 0x3e,
    0xa3, 0x88, 0x0f, 0xbe, 0x4a, 0x10, 0xa4, 0x3d, 0x98, 0x27, 0x0c, 0x3d,
    0x35, 0x4a, 0x0d, 0xbd, 0x3f, 0x3f, 0x23, 0x3e, 0x51, 0xf9, 0x5e, 0x3e,
    0x9a, 0xb6, 0x09, 0x3d, 0xdd, 0xdc, 0x85, 0xbe, 0x21, 0x55, 0x48, 0x3e,
    0xb4, 0x96, 0x28, 0xbe, 0x17, 0x8e, 0xb1, 0x3d, 0x6e, 0x4f, 0x5d, 0x3d,
    0xcc, 0x90, 0xbc, 0xbc, 0x20, 0x40, 0x3c, 0x3e, 0xd1, 0x99, 0x6c, 0x3d,
    0x1c, 0xc1, 0xae, 0x3e, 0xfe, 0x56, 0xaa, 0xbe, 0x45, 0xc0, 0x8a, 0xbd,
    0xb9, 0x49, 0xa9, 0x3e, 0x8e, 0xb3, 0x11, 0x3e, 0x75, 0x8d, 0x07, 0x3e,
    0x45, 0xb5, 0x3d, 0x3d, 0x57, 0xd4, 0x30, 0xbd, 0xfa, 0x77, 0x82, 0xbe,
    0xaf, 0x18, 0x67, 0x3e, 0x8f, 0xe6, 0x19, 0x3e, 0x63, 0x17, 0x27, 0x3e,
    0xaa, 0x29, 0x23, 0xbd, 0xe2, 0x33, 0x01, 0x3e, 0xfe, 0x23, 0x58, 0xbc,
    0xfc, 0xf4, 0x87, 0x3c, 0x62, 0xc9, 0xcc, 0x3d, 0xa8, 0x7f, 0xf5, 0x3d,
    0x27, 0xca, 0xbe, 0xbd, 0x9b, 0x3f, 0xd3, 0xbd, 0xd0, 0xbf, 0x12, 0xbe,
    0x4b, 0xb6, 0x38, 0x3e, 0xb3, 0x78, 0x84, 0x3e, 0x59, 0xc6, 0xb4, 0xbd,
    0xaf, 0xa8, 0x50, 0xbe, 0xa2, 0xc6, 0x90, 0xbe, 0xcb, 0x05, 0x13, 0x3d,
    0xf9, 0x0b, 0x83, 0x3e, 0x10, 0xbf, 0x6a, 0x3e, 0xa7, 0x05, 0x49, 0xbe,
    0xe7, 0x2a, 0x80, 0xbd, 0x81, 0x9f, 0x8f, 0xbe, 0xae, 0x2a, 0x21, 0xbe,
    0x01, 0x34, 0xa4, 0xbc, 0xc5, 0x47, 0x3a, 0xbe, 0xd2, 0xd6, 0x70, 0xbe,
    0x69, 0x36, 0x41, 0x3e, 0x0a, 0xda, 0x30, 0x3e, 0xc2, 0xf3, 0xff, 0xff,
    0x04, 0x00, 0x00, 0x00, 0x00, 0x0a, 0x00, 0x00, 0xb2, 0xd5, 0x8a, 0x3e,
    0x0c, 0x5d, 0x01, 0x3e, 0x9b, 0xc7, 0x2b, 0xbe, 0xa9, 0xa1, 0x7a, 0x3c,
    0xfc, 0x48, 0x41, 0xbe, 0x5b, 0xe8, 0x3e, 0xb8, 0x02, 0x91, 0x4c, 0xbd,
    0x20, 0x98, 0x18, 0x3e, 0x3b, 0x3f, 0x3b, 0xbe, 0x0d, 0x46, 0xd2, 0xbd,
    0x2a, 0xd2, 0xa0, 0xbd, 0x06, 0x45, 0x28, 0xbe, 0x05, 0x6a, 0x8b, 0x3d,
    0xa0, 0x62, 0x4e, 0xbe, 0x30, 0xbd, 0x44, 0x3e, 0x4e, 0x99, 0x3b, 0x3e,
    0xdb, 0x95, 0x9f, 0xbd, 0xb5, 0xa9, 0xe9, 0xbc, 0x93, 0xe5, 0x26, 0xbe,
    0x47, 0xf0, 0x22, 0x3e, 0xbe, 0xb3, 0x29, 0xbd, 0x14, 0xed, 0xd6, 0x3d,
    0x61, 0x93, 0xb4, 0x3d, 0x89, 0x16, 0x00, 0xbd, 0x6f, 0xa0, 0x06, 0xbe,
    0xa9, 0x18, 0x6f, 0xbe, 0xe9, 0x39, 0xbf, 0x3d, 0x2b, 0x59, 0x35, 0xbd,
    0xe4, 0x20, 0x1c, 0x3d, 0x8e, 0xca, 0x48, 0x3e, 0xc3, 0x44, 0x8a, 0x3d,
    0x38, 0x0d, 0xdf, 0x3d, 0x75, 0xb4, 0xce, 0x3c, 0x89, 0x5f, 0xd1, 0xbc,
    0xd9, 0x53, 0xae, 0xbc, 0x34, 0x07, 0x6b, 0xbe, 0xd3, 0xf3, 0x89, 0xbd,
    0x33, 0x7a, 0x81, 0xbd, 0xb0, 0x83, 0x5f, 0xbd, 0x50, 0x07, 0x6d, 0xbe,
    0xeb, 0x6c, 0x5e, 0xbe, 0x8a, 0xd3, 0x80, 0x3e, 0x36, 0xe9, 0xcd, 0xbd,
    0xab, 0xe4, 0xc1, 0xbd, 0x61, 0xec, 0x16, 0x3d, 0xea, 0x27, 0x0d, 0xbd,
    0x89, 0x1c, 0x23, 0x3d, 0x1b, 0x3f, 0x40, 0x3e, 0xd6, 0xc4, 0x37, 0x3c,
    0x39, 0xd4, 0x3f, 0x3d, 0x3d, 0x03, 0x2e, 0xbe, 0x01, 0x75, 0xa2, 0x3d,
    0x5d, 0x48, 0xb7, 0x3d, 0x2b, 0xc9, 0x1c, 0x3d, 0x19, 0x80, 0x7e, 0xbd,
    0xf7, 0x20, 0x2e, 0xbe, 0xa3, 0x82, 0x3a, 0xbe, 0xcc, 0x69, 0x18, 0xbe,
    0x05, 0x7c, 0x67, 0xbe, 0xd5, 0xc0, 0x0d, 0xbd, 0xb9, 0xa5, 0x9f, 0x3d,
    0x2f, 0xfd, 0x10, 0xbe, 0x4e, 0x6f, 0x26, 0x3e, 0x1a, 0xd4, 0xf8, 0xbd,
    0xc6, 0xba, 0x58, 0x3e, 0xb1, 0x05, 0x56, 0xbe, 0x1e, 0x85, 0x2c, 0xbe,
    0xd6, 0x52, 0x0d, 0x3e, 0x1b, 0x06, 0xaa, 0xbd, 0x61, 0x81, 0xf7, 0x3b,
    0xf7, 0xbe, 0xd8, 0x3d, 0x99, 0x4b, 0xb9, 0x3b, 0xf5, 0x87, 0xfc, 0x3b,
    0x89, 0x5e, 0x83, 0xbc, 0x7e, 0x03, 0xc2, 0xbb, 0x9f, 0x53, 0xd6, 0xbd,
    0x59, 0x48, 0x24, 0xbe, 0x7c, 0x47, 0x3a, 0xbe, 0x23, 0x57, 0x9a, 0xbc,
    0xa2, 0xdd, 0x68, 0x3e, 0xeb, 0xbe, 0xdb, 0x3d, 0xd7, 0x4c, 0x94, 0x3d,
    0xc7, 0xb2, 0xc3, 0x3d, 0x72, 0x30, 0x3b, 0xbe, 0x7e, 0xe2, 0x79, 0x3d,
    0xb3, 0x11, 0xc5, 0xbc, 0xca, 0xa9, 0x59, 0xbe, 0x9f, 0x3a, 0x37, 0xbe,
    0x51, 0xbe, 0x3b, 0xbd, 0x45, 0x9e, 0xfe, 0x3c, 0x07, 0x1d, 0x1a, 0x3e,
    0x13, 0x48, 0x70, 0xbc, 0x65, 0xa6, 0xa1, 0xbd, 0x79, 0x77, 0x89, 0xbe,
    0x84, 0xd7, 0xc1, 0x3d, 0xfe, 0xed, 0x9e, 0x3d, 0xc3, 0xad, 0x51, 0xbe,
    0x36, 0x98, 0x8e, 0xbc, 0x30, 0x9a, 0x6b, 0xbd, 0xf9, 0x38, 0xa9, 0xbd,
    0xc1, 0x30, 0xd7, 0x3d, 0x69, 0xae, 0x4d, 0x3d, 0x84, 0x0e, 0x7e, 0x3d,
    0xb2, 0x1e, 0x1b, 0xbe, 0x44, 0x8b, 0x73, 0xbd, 0x95, 0x0d, 0x23, 0x3e,
    0xac, 0x01, 0xd2, 0xbd, 0x62, 0x60, 0xcf, 0x3d, 0xae, 0xcc, 0xf4, 0xbd,
    0x44, 0x53, 0xd7, 0xbd, 0xa3, 0xaf, 0x53, 0xbe, 0x37, 0xa6, 0xa8, 0xbd,
    0xd7, 0xb7, 0x19, 0xbe, 0xb4, 0x3f, 0x09, 0x3e, 0x26, 0x05, 0x2f, 0x3e,
    0x47, 0x43, 0x5e, 0xbe, 0xd1, 0x98, 0xe6, 0xbd, 0xcb, 0xc5, 0x6b, 0xbe,
    0xa3, 0x58, 0x83, 0xbe, 0xa4, 0xe2, 0x32, 0x3e, 0x13, 0xb5, 0xc2, 0x3d,
    0x77, 0x52, 0x91, 0xbd, 0xea, 0xa5, 0xda, 0xbb, 0xad, 0x9b, 0x09, 0xbc,
    0xc2, 0xef, 0xa9, 0xbd, 0x79, 0xaa, 0x27, 0x3e, 0x95, 0x42, 0xe8, 0x3c,
    0x45, 0x1b, 0xb0, 0x3d, 0x47, 0x67, 0x19, 0x3e, 0xa5, 0xe3, 0x91, 0x3d,
    0x2e, 0xc2, 0xfc, 0x3c, 0xc7, 0x82, 0x1a, 0xbe, 0xcf, 0x14, 0xb5, 0x3d,
    0x61, 0x59, 0x8d, 0x3b, 0xa7, 0x21, 0x09, 0xbd, 0xb3, 0x6c, 0x09, 0x3e,
    0x2a, 0x49, 0xb4, 0xbd, 0x79, 0xe9, 0x7e, 0xbe, 0xe8, 0x0c, 0x6b, 0x3e,
    0x85, 0x6c, 0x84, 0xbe, 0x0a, 0xee, 0x47, 0xbd, 0x10, 0x7e, 0xfe, 0xbd,
    0xab, 0x9d, 0xe7, 0x3d, 0xeb, 0x90, 0x2e, 0x3e, 0x31, 0xca, 0x42, 0xbe,
    0x35, 0x2a, 0xea, 0x3d, 0xac, 0x1f, 0x5c, 0x3b, 0x58, 0x92, 0x98, 0x3d,
    0xbe, 0x80, 0x0e, 0x3e, 0xd9, 0x6f, 0x92, 0xbc, 0xf7, 0xb6, 0x18, 0xbe,
    0x58, 0xac, 0x4d, 0x3d, 0xbd, 0xb7, 0x7e, 0xbd, 0xcc, 0x3c, 0x45, 0xbd,
    0xf0, 0x40, 0xea, 0xbd, 0x2e, 0x28, 0x7f, 0xbe, 0x30, 0xec, 0x30, 0xbd,
    0xa1, 0xd6, 0x35, 0xbe, 0x7a, 0x45, 0xfb, 0xba, 0x42, 0x89, 0x0e, 0xbe,
    0xcb, 0x9d, 0x8a, 0xbd, 0x35, 0x69, 0x04, 0x3d, 0x92, 0x7b, 0x30, 0xbe,
    0x31, 0xba, 0x42, 0xbe, 0x91, 0x5a, 0xbb, 0xbb, 0x05, 0x6c, 0x8f, 0x3e,
    0x04, 0x2f, 0xf5, 0xbd, 0x0d, 0x2b, 0xca, 0xbd, 0xe3, 0x04, 0x93, 0x3d,
    0xa1, 0x94, 0x2d, 0xbe, 0x2a, 0x23, 0x81, 0x3d, 0xf0, 0x33, 0xb9, 0x3d,
    0xf3, 0xe1, 0x07, 0x3e, 0x8e, 0x8d, 0xb4, 0x3c, 0x1a, 0x21, 0xd7, 0xbd,
    0xa1, 0xa0, 0x7e, 0xbd, 0x83, 0xd4, 0xc6, 0xbd, 0x97, 0xe4, 0x1a, 0x3e,
    0xfb, 0x64, 0xae, 0xbd, 0x88, 0x91, 0x03, 0xbe, 0xd9, 0x3f, 0x40, 0xbd,
    0xe2, 0xcd, 0x80, 0x3e, 0xb0, 0x3b, 0x5e, 0xbd, 0xb6, 0xd2, 0xfa, 0x3d,
    0x5f, 0x39, 0xd5, 0x3c, 0xfc, 0x90, 0xf7, 0xbd, 0x02, 0xba, 0x2d, 0xbd,
    0xa3, 0x6d, 0x16, 0x3e, 0x52, 0xd8, 0xeb, 0xbd, 0x26, 0x4f, 0x9d, 0xbd,
    0x8b, 0x87, 0x50, 0xbe, 0x72, 0x36, 0x1f, 0x3e, 0x90, 0x83, 0x17, 0x3e,
    0xd9, 0xbb, 0x29, 0x3e, 0xe6, 0x30, 0x98, 0xbd, 0x89, 0x7c, 0xac, 0xbc,
    0x69, 0x80, 0x39, 0x3e, 0x06, 0x36, 0x61, 0xbd, 0xaa, 0x0e, 0x37, 0x3c,
    0x93, 0x52, 0x6d, 0xbe, 0xf4, 0x15, 0x29, 0x3e, 0xb2, 0xa1, 0xa4, 0x3d,
    0xa0, 0xf5, 0xd5, 0xbd, 0xf5, 0xd0, 0x54, 0xbe, 0x01, 0x25, 0x80, 0xbd,
    0xb5, 0x38, 0x83, 0xbe, 0xc1, 0xd7, 0x5c, 0xbe, 0x8b, 0x9b, 0xfc, 0x3d,
    0x0c, 0x8c, 0xad, 0xbd, 0x74, 0xdd, 0x13, 0x3e, 0x77, 0x5a, 0x1c, 0xbe,
    0x7a, 0x28, 0x24, 0x3d, 0x61, 0x24, 0xb8, 0xbd, 0x70, 0x91, 0xa9, 0xbd,
    0xfa, 0x08, 0xaf, 0x3d, 0x37, 0x81, 0xed, 0x3d, 0x7f, 0xc4, 0x18, 0x3e,
    0x9e, 0x2b, 0xdc, 0xbd, 0x39, 0xbb, 0x74, 0xbe, 0xe5, 0x4e, 0xc2, 0xbc,
    0x72, 0xc4, 0xcc, 0xbc, 0x88, 0x55, 0xf8, 0x3d, 0x3c, 0x9c, 0x20, 0xbe,
    0x17, 0x2b, 0xfc, 0xbd, 0xba, 0xd8, 0x0a, 0x3e, 0x0c, 0x14, 0xb8, 0xbd,
    0x58, 0xcb, 0xe1, 0xbc, 0x72, 0x06, 0x1d, 0xbe, 0x51, 0xfe, 0x7e, 0xbd,
    0x86, 0x09, 0xa0, 0xbd, 0x5f, 0x9e, 0x84, 0xbd, 0xa2, 0xe9, 0xdf, 0xbc,
    0x5b, 0xbd, 0x97, 0x3d, 0xfa, 0x2f, 0x83, 0x3e, 0x57, 0x59, 0xb7, 0xbd,
    0xe0, 0xe5, 0x6a, 0xbe, 0x74, 0x9f, 0xea, 0x3d, 0xe8, 0x21, 0xa6, 0x3d,
    0x8e, 0x35, 0x6e, 0x3d, 0x22, 0x22, 0x42, 0xbd, 0xb1, 0x4d, 0xf8, 0xbd,
    0x22, 0xc3, 0x77, 0xbe, 0x9d, 0xa6, 0x0e, 0x3e, 0x29, 0x60, 0x0e, 0x3e,
    0xde, 0x30, 0xd9, 0x3d, 0xbb, 0x0a, 0xad, 0xbd, 0xef, 0x56, 0x36, 0x3c,
    0x6b, 0x35, 0x37, 0xbe, 0x41, 0xb9, 0x06, 0x3b, 0x94, 0xae, 0x5d, 0xbc,
    0xe4, 0xa9, 0x8e, 0x3d, 0x9f, 0xfe, 0x86, 0xbe, 0x57, 0x47, 0x53, 0xbe,
    0x08, 0xef, 0x5a, 0xbe, 0x3d, 0x0a, 0x18, 0x3e, 0x69, 0x47, 0xba, 0xbb,
    0x3c, 0xad, 0xc3, 0x3d, 0x42, 0x16, 0x89, 0x3d, 0x0b, 0xc0, 0xc7, 0x3d,
    0xa0, 0xeb, 0x8b, 0xbc, 0xac, 0x48, 0x6c, 0xbc, 0x3d, 0x8a, 0x19, 0xbe,
    0x25, 0x9a, 0x90, 0x3c, 0x6b, 0x58, 0xeb, 0x3d, 0x0b, 0x62, 0xdf, 0xbd,
    0x3f, 0x7f, 0x81, 0xbe, 0x87, 0x4e, 0xeb, 0xbd, 0x64, 0xd1, 0x5c, 0xbd,
    0xc8, 0x43, 0x00, 0x3d, 0xef, 0x63, 0x10, 0x3e, 0xa0, 0xff, 0x6c, 0xbd,
    0xef, 0xba, 0x05, 0xbe, 0x4e, 0xa8, 0x3c, 0x3d, 0x94, 0x28, 0x5c, 0xbd,
    0xd9, 0x77, 0xb1, 0x3d, 0xd9, 0x69, 0x8d, 0xbe, 0x3c, 0x96, 0x82, 0xbd,
    0x3c, 0x3a, 0x0d, 0xbd, 0x17, 0x7e, 0x3f, 0x3c, 0xc3, 0xe7, 0x0c, 0x3e,
    0xc7, 0x69, 0xab, 0xbc, 0x6a, 0x0d, 0xc0, 0xbd, 0xe0, 0xdf, 0x22, 0xbe,
    0x7d, 0xd4, 0x4f, 0xbe, 0xe8, 0xff, 0x17, 0xbd, 0xba, 0x00, 0x3a, 0xbe,
    0x8c, 0x26, 0xa8, 0x3d, 0x7d, 0xf7, 0x22, 0xbe, 0x0d, 0xcb, 0xd5, 0xbd,
    0xca, 0xdd, 0x29, 0x3e, 0xdf, 0xb1, 0x5a, 0xbe, 0xbc, 0xcc, 0xd0, 0x3d,
    0x8f, 0xa5, 0x11, 0x3e, 0xb2, 0x18, 0xa4, 0xbd, 0x63, 0xdb, 0xde, 0x3d,
    0xb7, 0xb2, 0xd2, 0xbd, 0x91, 0xa5, 0xef, 0xbc, 0x81, 0xcb, 0x14, 0x3e,
    0x02, 0x4b, 0x78, 0xbd, 0xef, 0xae, 0x37, 0xbe, 0xf7, 0xc3, 0x1b, 0x3e,
    0xd2, 0xd1, 0xfb, 0x3d, 0x8e, 0x5f, 0x5e, 0x3e, 0x88, 0xb5, 0x32, 0xbe,
    0xf3, 0xe9, 0xee, 0x3d, 0xe5, 0xae, 0x5f, 0x3d, 0x0a, 0x96, 0x25, 0xbe,
    0xa3, 0xb9, 0x49, 0xbe, 0x25, 0xe8, 0x32, 0xbe, 0xca, 0xaa, 0x63, 0xbc,
    0xc2, 0xda, 0x2c, 0x3e, 0x8e, 0x52, 0xf4, 0x3d, 0xe3, 0x0f, 0x31, 0x3e,
    0xf9, 0x60, 0x3d, 0xbe, 0x0c, 0x8a, 0xbe, 0xbd, 0x92, 0x65, 0x65, 0x3d,
    0xf3, 0x9b, 0x73, 0x3d, 0xe2, 0x2b, 0xf0, 0xbc, 0xd5, 0xd7, 0xb3, 0xbd,
    0x7c, 0x34, 0x17, 0xbc, 0x76, 0xdd, 0xca, 0xbc, 0xaa, 0xc5, 0x77, 0xbe,
    0xf0, 0xf3, 0x1a, 0x3d, 0x6f, 0x31, 0xce, 0x3d, 0x72, 0xf2, 0x14, 0x3e,
    0x35, 0xca, 0x36, 0xbe, 0x7a, 0x41, 0xd7, 0x3d, 0x33, 0x93, 0x51, 0xbe,
    0x8b, 0xf9, 0x34, 0x3e, 0x88, 0xb2, 0xb0, 0xbc, 0x3a, 0x15, 0xc4, 0xbd,
    0x8d, 0x24, 0x24, 0x3e, 0x3f, 0xe9, 0xe1, 0xbd, 0xaa, 0x37, 0x4e, 0xbd,
    0xff, 0x68, 0x64, 0x3d, 0x43, 0xb4, 0x6b, 0x3d, 0x9a, 0x63, 0x6a, 0xbe,
    0xdf, 0xe2, 0xeb, 0xbc, 0x5d, 0x55, 0x08, 0x3e, 0xdc, 0x18, 0xfd, 0x3d,
    0xb6, 0xf7, 0xcc, 0x3d, 0xdf, 0x79, 0x8a, 0xbe, 0x86, 0xae, 0x88, 0xbd,
    0x6f, 0xc4, 0x15, 0x3e, 0x4b, 0xe8, 0xc7, 0x3d, 0x35, 0x3e, 0x0a, 0xbe,
    0x69, 0x12, 0x16, 0x3a, 0x57, 0xd2, 0x5d, 0xbe, 0xd6, 0x52, 0xb4, 0xbd,
    0x7b, 0xa9, 0x08, 0xbe, 0x00, 0x5d, 0xfe, 0x3b, 0x3f, 0x1d, 0xd4, 0x3d,
    0xb9, 0xc2, 0xd4, 0x3d, 0xd9, 0xe0, 0x60, 0xbe, 0x91, 0xb9, 0x6f, 0x3d,
    0xde, 0x00, 0xf9, 0xbd, 0xff, 0xac, 0x7b, 0x3c, 0x20, 0x64, 0xe4, 0xbd,
    0xdf, 0x2c, 0x68, 0x3c, 0x05, 0x11, 0xdc, 0x3b, 0x46, 0xb4, 0xdc, 0xbd,
    0x30, 0xe5, 0x09, 0x3e, 0xe7, 0x25, 0x39, 0x3e, 0x24, 0xef, 0x3a, 0x3e,
    0xa0, 0x88, 0x1f, 0xbd, 0xd6, 0xd1, 0x03, 0x3e, 0x02, 0xa2, 0x22, 0xbe,
    0xc9, 0xb1, 0x04, 0x3e, 0x6e, 0x6e, 0xbd, 0xbb, 0x0e, 0xd4, 0xac, 0x3d,
    0xb6, 0x90, 0x20, 0x3e, 0x13, 0xd2, 0x08, 0xbd, 0x93, 0xe3, 0x35, 0xbe,
    0x7a, 0x39, 0x0a, 0xbe, 0xae, 0x15, 0xe8, 0xbd, 0x4d, 0xab, 0x73, 0x3e,
    0x82, 0x38, 0xc4, 0x3b, 0x91, 0x2b, 0x45, 0xbe, 0x72, 0x8b, 0x8c, 0x3d,
    0x78, 0x50, 0x9b, 0xbd, 0xfa, 0xa7, 0x2a, 0xbe, 0xa3, 0x82, 0x81, 0xbd,
    0x81, 0x43, 0xcd, 0xbd, 0xd2, 0xa1, 0xa6, 0x39, 0x0c, 0x44, 0xf8, 0x3c,
    0xab, 0x50, 0x35, 0xbd, 0xe2, 0x49, 0x59, 0x3d, 0x12, 0xec, 0x42, 0xbe,
    0xa3, 0x08, 0xe5, 0xbd, 0x8e, 0xe9, 0x27, 0xbe, 0xd7, 0x65, 0xcb, 0xbd,
    0x80, 0xb5, 0xd3, 0x3d, 0xfd, 0x2b, 0x6e, 0xbe, 0xe5, 0x49, 0x1b, 0x3e,
    0x1a, 0x33, 0xa0, 0xbb, 0x10, 0xfe, 0x80, 0xbe, 0xe4, 0x16, 0x0b, 0xbe,
    0xc0, 0x43, 0xe8, 0x3c, 0xd7, 0x51, 0x98, 0xbd, 0xab, 0xf9, 0xc1, 0xbd,
    0x34, 0xaf, 0xa4, 0xbd, 0xb6, 0x5b, 0x93, 0xbe, 0xfc, 0x17, 0x58, 0xbd,
    0xd1, 0xaf, 0xd9, 0xbd, 0x0a, 0x8d, 0x65, 0xbe, 0x91, 0xfa, 0xa5, 0x38,
    0xca, 0xb2, 0x2d, 0xbe, 0xa1, 0xb9, 0xed, 0x3d, 0x32, 0x2f, 0xf1, 0xbd,
    0xf4, 0x56, 0x07, 0x3e, 0x0d, 0x06, 0x64, 0x3d, 0xf6, 0xe0, 0x7a, 0x3e,
    0xb2, 0x85, 0x53, 0xbe, 0xc2, 0xe1, 0xe9, 0x3c, 0xa1, 0x51, 0x04, 0x3b,
    0xda, 0xc3, 0xdb, 0xbd, 0x46, 0x15, 0xbb, 0x3d, 0x94, 0xa4, 0x36, 0xbe,
    0x62, 0x0f, 0x66, 0xbe, 0xa0, 0xbf, 0x6f, 0x3d, 0x0f, 0xad, 0x00, 0x3e,
    0x5c, 0xfe, 0xd4, 0xbd, 0xbe, 0xe3, 0x00, 0xbe, 0x39, 0xc3, 0x16, 0x3d,
    0x29, 0xe8, 0x91, 0xbd, 0xe8, 0xd3, 0x69, 0xbd, 0x01, 0x0c, 0x0e, 0x3e,
    0xb4, 0x14, 0x39, 0x3e, 0x4f, 0x69, 0xfe, 0xbb, 0xff, 0x5d, 0x5c, 0x3e,
    0x55, 0x73, 0xc2, 0x3a, 0x0f, 0x64, 0x00, 0x3e, 0x99, 0x94, 0x00, 0xbe,
    0xed, 0xb5, 0xe1, 0xbc, 0x8d, 0x1a, 0xee, 0x3d, 0x48, 0xa7, 0x3d, 0xbd,
    0x95, 0x8e, 0x34, 0xbe, 0xd7, 0x73, 0xa5, 0xbd, 0x2a, 0x07, 0x50, 0x3e,
    0x20, 0x38, 0x54, 0x3e, 0x1a, 0x0d, 0x0b, 0x3d, 0x8e, 0xbb, 0x03, 0xbb,
    0x30, 0xc4, 0x4a, 0xbe, 0x6b, 0xb6, 0xf4, 0xbd, 0xf4, 0x0e, 0xc8, 0xbc,
    0xad, 0x6c, 0xd9, 0xbb, 0x01, 0xcb, 0x84, 0x3d, 0xc9, 0x45, 0x33, 0x3e,
    0xcf, 0xe1, 0x11, 0xba, 0x70, 0x34, 0xee, 0xbc, 0xf0, 0xfe, 0x05, 0xbe,
    0x71, 0x48, 0x4f, 0xbd, 0x1f, 0x23, 0x7a, 0x3d, 0x7c, 0x05, 0xb5, 0x3d,
    0xdf, 0x4c, 0x82, 0xbe, 0xf3, 0xed, 0x54, 0xbd, 0x0f, 0xfb, 0x90, 0xbd,
    0x87, 0x15, 0x02, 0xbe, 0x8a, 0x1b, 0x0f, 0xbe, 0x01, 0x6c, 0x22, 0x3e,
    0x7d, 0x6d, 0x2d, 0x3e, 0xcb, 0xe2, 0xde, 0xbc, 0x1f, 0xfc, 0xc5, 0xbc,
    0x49, 0x24, 0x6d, 0xbe, 0x17, 0x1a, 0x4f, 0xbe, 0x2e, 0x2e, 0x35, 0xbe,
    0xb0, 0xd7, 0x02, 0x3e, 0x7c, 0x83, 0x39, 0xbd, 0x3f, 0xd7, 0xf5, 0xbd,
    0xbd, 0x90, 0xe8, 0x3d, 0x2e, 0x72, 0x2e, 0xbd, 0x85, 0xf9, 0x4e, 0xbe,
    0xf4, 0xac, 0x83, 0x3d, 0xac, 0x9c, 0xd8, 0x3d, 0xdc, 0x1d, 0x01, 0x3d,
    0x47, 0x4f, 0x6e, 0xbd, 0xf3, 0xfe, 0x21, 0x3e, 0x64, 0xad, 0x7c, 0xbd,
    0xf3, 0xf5, 0x68, 0xbd, 0x61, 0xe4, 0xa1, 0xbd, 0x5d, 0x0e, 0xf5, 0xbd,
    0xa1, 0x28, 0x49, 0x3e, 0x5c, 0x36, 0xdc, 0xbc, 0xd8, 0x6e, 0x7d, 0xbe,
    0xe7, 0x36, 0x52, 0xbd, 0x94, 0xb1, 0x31, 0x3e, 0xaf, 0xd8, 0x06, 0xbd,
    0x8d, 0xe7, 0xfe, 0xbd, 0xe7, 0x24, 0x15, 0xbc, 0xe0, 0x35, 0x45, 0xbe,
    0x56, 0xeb, 0xa3, 0x3c, 0x92, 0x24, 0xf6, 0x3c, 0x5c, 0xa7, 0xfb, 0xbd,
    0xca, 0x05, 0x72, 0xbe, 0x05, 0x54, 0x8b, 0xbe, 0x35, 0x2c, 0x94, 0x3d,
    0x5b, 0xfd, 0x00, 0x3e, 0x91, 0x75, 0x16, 0x3e, 0x7e, 0x62, 0x2a, 0x3c,
    0xdb, 0x55, 0xcd, 0xbd, 0xb3, 0x32, 0xb5, 0xbd, 0xa6, 0xe4, 0x13, 0x3e,
    0x3d, 0x0c, 0x21, 0xbe, 0x89, 0x89, 0x04, 0x3e, 0xf5, 0x7b, 0x13, 0x3e,
    0x6b, 0x90, 0x4d, 0xbe, 0x7f, 0x6d, 0x15, 0x3e, 0xd3, 0x25, 0x06, 0xbe,
    0x9f, 0x01, 0x91, 0xbd, 0x7e, 0x1c, 0x80, 0xbe, 0xf4, 0x1b, 0x1e, 0xbd,
    0x2c, 0x31, 0xb1, 0xbd, 0x66, 0x32, 0x3b, 0x3e, 0xc8, 0xcf, 0xc7, 0xbd,
    0xb3, 0x40, 0x49, 0xbe, 0x46, 0x8e, 0x96, 0xbd, 0xdb, 0xce, 0x1e, 0x3c,
    0x0f, 0x72, 0x15, 0xbc, 0x0e, 0xdd, 0x03, 0xbe, 0x17, 0x99, 0x4f, 0x3e,
    0xde, 0xfa, 0x31, 0xbe, 0xac, 0xf8, 0x30, 0x3e, 0x53, 0x10, 0xeb, 0xbd,
    0x70, 0xed, 0x1f, 0xbe, 0x71, 0x02, 0x0f, 0xbc, 0xb6, 0x0a, 0x42, 0x3e,
    0xdc, 0x70, 0x51, 0x3e, 0x63, 0x41, 0x0f, 0x3d, 0x3a, 0xf5, 0xa1, 0x3b,
    0x90, 0x8f, 0x3d, 0xbe, 0xe3, 0x9a, 0x1b, 0xbe, 0x18, 0x52, 0x06, 0xbe,
    0x53, 0xe3, 0x21, 0xbe, 0x58, 0x92, 0x50, 0x3e, 0x13, 0xcd, 0x0a, 0xbe,
    0x4d, 0xd4, 0x1a, 0x3d, 0x8a, 0x25, 0x5d, 0x3e, 0x6d, 0xc4, 0x5c, 0xbe,
    0x1d, 0xa2, 0x57, 0xbd, 0xd3, 0x09, 0xa0, 0xbd, 0x15, 0xaa, 0xd5, 0x3c,
    0x07, 0xba, 0x0b, 0x3e, 0x99, 0x74, 0x83, 0x3d, 0xca, 0xd4, 0x4d, 0x3c,
    0x1a, 0x95, 0x28, 0x3e, 0x94, 0xbe, 0x60, 0xbe, 0xa1, 0x04, 0x3e, 0x3c,
    0xde, 0x61, 0xef, 0xbd, 0xeb, 0x2d, 0x01, 0x3e, 0x53, 0xf5, 0x25, 0xbc,
    0xaf, 0xff, 0x33, 0xbe, 0x4b, 0xfc, 0xb5, 0x3d, 0xbe, 0xbb, 0x69, 0x3e,
    0xed, 0x7a, 0x46, 0xbe, 0x87, 0x89, 0x85, 0xbd, 0x63, 0x8f, 0x23, 0xbd,
    0xa4, 0xca, 0xcc, 0x3d, 0xe2, 0xb9, 0xaf, 0x3d, 0xf3, 0xfc, 0x79, 0x3d,
    0xe6, 0x2d, 0x11, 0xbe, 0xf5, 0xed, 0x18, 0xbe, 0xa8, 0x5c, 0x0e, 0xbe,
    0xc9, 0xf9, 0x0e, 0xbd, 0x75, 0x4c, 0x90, 0xbd, 0xba, 0x9c, 0x2f, 0x3e,
    0x4e, 0xfd, 0x08, 0xbe, 0xb5, 0x8b, 0x24, 0x3e, 0xfb, 0xf1, 0x8e, 0xbe,
    0xc8, 0xd5, 0x35, 0xbe, 0x03, 0xfb, 0xa3, 0x3d, 0xe0, 0xed, 0x8a, 0xbe,
    0xc4, 0x0a, 0xa0, 0xbd, 0x99, 0x86, 0x35, 0xbe, 0xe1, 0xb6, 0x1c, 0x3e,
    0xa5, 0xea, 0xe0, 0xbd, 0x32, 0x07, 0x5a, 0x3d, 0x94, 0xb9, 0x00, 0xbc,
    0x51, 0xcf, 0x2f, 0xbb, 0x4a, 0x43, 0x76, 0x3d, 0x7f, 0xcf, 0x38, 0xbe,
    0xf5, 0xc0, 0x51, 0x3d, 0x76, 0xfc, 0x2c, 0xbe, 0x3a, 0x59, 0x0a, 0x3e,
    0xfe, 0x8a, 0xfd, 0xbc, 0xcb, 0xd1, 0xf3, 0xbd, 0xd6, 0x6d, 0x0b, 0x3e,
    0x1c, 0x24, 0x10, 0x3d, 0x8a, 0x92, 0x21, 0xbe, 0x85, 0x1b, 0x18, 0xbc,
    0x93, 0xcd, 0x52, 0x3c, 0x08, 0x83, 0xca, 0xba, 0x83, 0xac, 0x91, 0xbe,
    0xf1, 0x14, 0x81, 0xbd, 0x00, 0xd5, 0x50, 0x3d, 0x2e, 0x77, 0x99, 0xbd,
    0x83, 0x2b, 0x4f, 0x3d, 0x30, 0x6d, 0x46, 0x3e, 0x72, 0x06, 0x17, 0x3e,
    0xc3, 0x44, 0x34, 0x3e, 0x5c, 0xbc, 0xd8, 0x3d, 0x1b, 0x52, 0x27, 0xbe,
    0x9a, 0x0f, 0x3e, 0xbc, 0xf7, 0xf6, 0x38, 0x3b, 0x76, 0xee, 0x89, 0x3d,
    0x33, 0xf2, 0x0d, 0xbe, 0x03, 0x90, 0x29, 0x3e, 0x97, 0xc1, 0xc8, 0x3d,
    0x61, 0x29, 0x9e, 0x3c, 0x42, 0xc0, 0x4c, 0xbd, 0x6b, 0x7a, 0x0f, 0x3d,
    0x71, 0xe6, 0xc5, 0x3d, 0x14, 0x9f, 0x3d, 0xbe, 0x85, 0x68, 0x19, 0x3e,
    0xb4, 0x4f, 0x31, 0xbe, 0x0a, 0xf4, 0xf4, 0x3d, 0xf0, 0x7d, 0xbe, 0xbd,
    0x7d, 0x04, 0xcf, 0x3c, 0xc0, 0x99, 0x43, 0x3e, 0x4a, 0x4e, 0x8d, 0xbe,
    0xe6, 0x93, 0x5a, 0x3b, 0x83, 0xdd, 0x4a, 0xbe, 0xa9, 0x7f, 0x15, 0xbd,
    0x41, 0xc8, 0x2a, 0xbe, 0x09, 0xda, 0xb5, 0xbc, 0x71, 0x3e, 0x29, 0xbe,
    0xa4, 0x83, 0xf9, 0xbc, 0x6b, 0x89, 0xa2, 0xbd, 0xea, 0x46, 0xce, 0xbd,
    0xd7, 0xfb, 0x65, 0xbb, 0x56, 0x8b, 0x1f, 0x3d, 0x54, 0x6f, 0x98, 0x3c,
    0xe7, 0x19, 0xca, 0xbd, 0x7c, 0x1d, 0x2b, 0x3e, 0x3e, 0xc0, 0x28, 0x3e,
    0x84, 0xa7, 0xc8, 0xbd, 0xb8, 0x34, 0xec, 0x3d, 0x47, 0x0d, 0x8e, 0x3d,
    0xcf, 0xbb, 0x15, 0xbc, 0xb6, 0x54, 0x60, 0xbe, 0x84, 0xfe, 0x5c, 0x3d,
    0xce, 0xfd, 0xff, 0xff, 0x04, 0x00, 0x00, 0x00, 0x0c, 0x00, 0x00, 0x00,
    0xff, 0xff, 0xff, 0xff, 0xc8, 0x00, 0x00, 0x00, 0x08, 0x00, 0x00, 0x00,
    0xe6, 0xfd, 0xff, 0xff, 0x04, 0x00, 0x00, 0x00, 0x0c, 0x00, 0x00, 0x00,
    0xff, 0xff, 0xff, 0xff, 0x32, 0x00, 0x00, 0x00, 0x08, 0x00, 0x00, 0x00,
    0xfe, 0xfd, 0xff, 0xff, 0x04, 0x00, 0x00, 0x00, 0x0c, 0x00, 0x00, 0x00,
    0xff, 0xff, 0xff, 0xff, 0x32, 0x00, 0x00, 0x00, 0x10, 0x00, 0x00, 0x00,
    0x16, 0xfe, 0xff, 0xff, 0x04, 0x00, 0x00, 0x00, 0x0c, 0x00, 0x00, 0x00,
    0xff, 0xff, 0xff, 0xff, 0x0c, 0x00, 0x00, 0x00, 0x10, 0x00, 0x00, 0x00,
    0x2e, 0xfe, 0xff, 0xff, 0x04, 0x00, 0x00, 0x00, 0x0c, 0x00, 0x00, 0x00,
    0x4e, 0xd9, 0xdd, 0xbd, 0xf5, 0xe9, 0x99, 0x3b, 0x88, 0x02, 0xdc, 0x3d,
    0x46, 0xfe, 0xff, 0xff, 0x04, 0x00, 0x00, 0x00, 0x20, 0x00, 0x00, 0x00,
    0x3a, 0x5f, 0x62, 0x3c, 0x57, 0x87, 0xb9, 0x3e, 0x65, 0x42, 0x35, 0xbe,
    0x91, 0x5e, 0x61, 0xbe, 0xd7, 0xe3, 0xff, 0x3e, 0xb0, 0x40, 0x8d, 0x3e,
    0x55, 0xa4, 0x22, 0xbe, 0xcf, 0xf4, 0xe0, 0xbd, 0x72, 0xfe, 0xff, 0xff,
    0x04, 0x00, 0x00, 0x00, 0x40, 0x00, 0x00, 0x00, 0x59, 0xfc, 0x92, 0xbd,
    0xaf, 0x14, 0x6d, 0x3e, 0x89, 0x42, 0x35, 0xbd, 0x37, 0x08, 0x1d, 0x3e,
    0x62, 0x19, 0xc8, 0x3e, 0x19, 0x25, 0xd1, 0x3e, 0x51, 0x70, 0x1d, 0xbd,
    0xc5, 0xd7, 0x3f, 0x3e, 0xfa, 0xd5, 0xdc, 0xbd, 0x72, 0xd7, 0xda, 0x3c,
    0x81, 0x65, 0x1a, 0xbe, 0x4a, 0x10, 0x84, 0x3e, 0x6a, 0x2b, 0x16, 0xbe,
    0x4b, 0xbe, 0x61, 0x3c, 0x43, 0x00, 0xf7, 0x3e, 0x06, 0x04, 0x87, 0x3d,
    0xbe, 0xfe, 0xff, 0xff, 0x04, 0x00, 0x00, 0x00, 0x80, 0x00, 0x00, 0x00,
    0xe5, 0x3e, 0xfb, 0x3c, 0xd5, 0xda, 0x31, 0x3f, 0x7d, 0x5d, 0x11, 0xbe,
    0xe0, 0x23, 0x3c, 0xbd, 0x3c, 0xa1, 0xeb, 0x3d, 0x92, 0x54, 0x8f, 0xbd,
    0xe3, 0x0a, 0x03, 0xbd, 0x15, 0x6a, 0xb7, 0x3b, 0x0c, 0xaa, 0xaf, 0xbc,
    0x48, 0xe8, 0x9d, 0x3e, 0xc3, 0x67, 0xc8, 0xbd, 0x7c, 0x8c, 0x17, 0xbe,
    0x87, 0x53, 0x7a, 0x3d, 0x38, 0x97, 0xf4, 0xbd, 0x6d, 0x96, 0xa0, 0xbc,
    0x46, 0x28, 0x16, 0x3e, 0xcb, 0xf1, 0x8b, 0xbd, 0xbd, 0xc7, 0xe3, 0xbc,
    0x90, 0x0c, 0xcb, 0xbc, 0x6d, 0x5b, 0xb5, 0xbd, 0x4f, 0x94, 0x21, 0xbd,
    0x00, 0x00, 0x00, 0x00, 0xea, 0xee, 0x53, 0x3d, 0xce, 0xd8, 0x6b, 0xbd,
    0x26, 0x1b, 0x70, 0xbd, 0x36, 0xec, 0xb3, 0x3e, 0x13, 0xa4, 0x23, 0x3e,
    0xf0, 0x99, 0x9e, 0xbd, 0xec, 0xdf, 0x25, 0x3c, 0x88, 0xdf, 0xdc, 0xbd,
    0xca, 0x1e, 0x8c, 0x3f, 0xa8, 0x21, 0xb5, 0x3e, 0x04, 0xef, 0xff, 0xff,
    0x08, 0xef, 0xff, 0xff, 0x0f, 0x00, 0x00, 0x00, 0x4d, 0x4c, 0x49, 0x52,
    0x20, 0x43, 0x6f, 0x6e, 0x76, 0x65, 0x72, 0x74, 0x65, 0x64, 0x2e, 0x00,
    0x01, 0x00, 0x00, 0x00, 0x14, 0x00, 0x00, 0x00, 0x00, 0x00, 0x0e, 0x00,
    0x18, 0x00, 0x14, 0x00, 0x10, 0x00, 0x0c, 0x00, 0x08, 0x00, 0x04, 0x00,
    0x0e, 0x00, 0x00, 0x00, 0x14, 0x00, 0x00, 0x00, 0x1c, 0x00, 0x00, 0x00,
    0xc0, 0x03, 0x00, 0x00, 0xc4, 0x03, 0x00, 0x00, 0xc8, 0x03, 0x00, 0x00,
    0x04, 0x00, 0x00, 0x00, 0x6d, 0x61, 0x69, 0x6e, 0x00, 0x00, 0x00, 0x00,
    0x10, 0x00, 0x00, 0x00, 0x78, 0x03, 0x00, 0x00, 0x18, 0x03, 0x00, 0x00,
    0xe0, 0x02, 0x00, 0x00, 0xa4, 0x02, 0x00, 0x00, 0x50, 0x02, 0x00, 0x00,
    0x28, 0x02, 0x00, 0x00, 0xf8, 0x01, 0x00, 0x00, 0xb4, 0x01, 0x00, 0x00,
    0x8c, 0x01, 0x00, 0x00, 0x5c, 0x01, 0x00, 0x00, 0x18, 0x01, 0x00, 0x00,
    0xf0, 0x00, 0x00, 0x00, 0xbc, 0x00, 0x00, 0x00, 0x78, 0x00, 0x00, 0x00,
    0x40, 0x00, 0x00, 0x00, 0x04, 0x00, 0x00, 0x00, 0x32, 0xfd, 0xff, 0xff,
    0x1c, 0x00, 0x00, 0x00, 0x00, 0x00, 0x00, 0x09, 0x1c, 0x00, 0x00, 0x00,
    0x20, 0x00, 0x00, 0x00, 0x06, 0x00, 0x00, 0x00, 0x00, 0x00, 0x06, 0x00,
    0x08, 0x00, 0x04, 0x00, 0x06, 0x00, 0x00, 0x00, 0x00, 0x00, 0x80, 0x3f,
    0x01, 0x00, 0x00, 0x00, 0x1e, 0x00, 0x00, 0x00, 0x01, 0x00, 0x00, 0x00,
    0x1d, 0x00, 0x00, 0x00, 0x6a, 0xfd, 0xff, 0xff, 0x14, 0x00, 0x00, 0x00,
    0x00, 0x00, 0x00, 0x08, 0x10, 0x00, 0x00, 0x00, 0x14, 0x00, 0x00, 0x00,
    0x05, 0x00, 0x00, 0x00, 0xf0, 0xef, 0xff, 0xff, 0x01, 0x00, 0x00, 0x00,
    0x1d, 0x00, 0x00, 0x00, 0x03, 0x00, 0x00, 0x00, 0x1c, 0x00, 0x00, 0x00,
    0x0b, 0x00, 0x00, 0x00, 0x04, 0x00, 0x00, 0x00, 0x9e, 0xfd, 0xff, 0xff,
    0x1c, 0x00, 0x00, 0x00, 0x00, 0x00, 0x00, 0x08, 0x1c, 0x00, 0x00, 0x00,
    0x20, 0x00, 0x00, 0x00, 0x05, 0x00, 0x00, 0x00, 0x00, 0x00, 0x06, 0x00,
    0x08, 0x00, 0x07, 0x00, 0x06, 0x00, 0x00, 0x00, 0x00, 0x00, 0x00, 0x01,
    0x01, 0x00, 0x00, 0x00, 0x1c, 0x00, 0x00, 0x00, 0x03, 0x00, 0x00, 0x00,
    0x1b, 0x00, 0x00, 0x00, 0x0c, 0x00, 0x00, 0x00, 0x01, 0x00, 0x00, 0x00,
    0xde, 0xfd, 0xff, 0xff, 0x14, 0x00, 0x00, 0x00, 0x00, 0x00, 0x00, 0x1b,
    0x10, 0x00, 0x00, 0x00, 0x14, 0x00, 0x00, 0x00, 0x04, 0x00, 0x00, 0x00,
    0x64, 0xf0, 0xff, 0xff, 0x01, 0x00, 0x00, 0x00, 0x1b, 0x00, 0x00, 0x00,
    0x02, 0x00, 0x00, 0x00, 0x1a, 0x00, 0x00, 0x00, 0x0d, 0x00, 0x00, 0x00,
    0x3e, 0xfe, 0xff, 0xff, 0x0c, 0x00, 0x00, 0x00, 0x10, 0x00, 0x00, 0x00,
    0x02, 0x00, 0x00, 0x00, 0x01, 0x00, 0x00, 0x00, 0x1a, 0x00, 0x00, 0x00,
    0x02, 0x00, 0x00, 0x00, 0x19, 0x00, 0x00, 0x00, 0x05, 0x00, 0x00, 0x00,
    0x32, 0xfe, 0xff, 0xff, 0x14, 0x00, 0x00, 0x00, 0x00, 0x00, 0x00, 0x05,
    0x24, 0x00, 0x00, 0x00, 0x28, 0x00, 0x00, 0x00, 0x03, 0x00, 0x00, 0x00,
    0xde, 0xfe, 0xff, 0xff, 0x01, 0x00, 0x00, 0x00, 0x04, 0x00, 0x00, 0x00,
    0x01, 0x00, 0x00, 0x00, 0x04, 0x00, 0x00, 0x00, 0x00, 0x00, 0x00, 0x01,
    0x01, 0x00, 0x00, 0x00, 0x19, 0x00, 0x00, 0x00, 0x01, 0x00, 0x00, 0x00,
    0x18, 0x00, 0x00, 0x00, 0x16, 0xfe, 0xff, 0xff, 0x10, 0x00, 0x00, 0x00,
    0x00, 0x00, 0x00, 0x34, 0x0c, 0x00, 0x00, 0x00, 0x10, 0x00, 0x00, 0x00,
    0xf4, 0xf0, 0xff, 0xff, 0x01, 0x00, 0x00, 0x00, 0x18, 0x00, 0x00, 0x00,
    0x02, 0x00, 0x00, 0x00, 0x17, 0x00, 0x00, 0x00, 0x0d, 0x00, 0x00, 0x00,
    0xce, 0xfe, 0xff, 0xff, 0x0c, 0x00, 0x00, 0x00, 0x10, 0x00, 0x00, 0x00,
    0x02, 0x00, 0x00, 0x00, 0x01, 0x00, 0x00, 0x00, 0x17, 0x00, 0x00, 0x00,
    0x02, 0x00, 0x00, 0x00, 0x16, 0x00, 0x00, 0x00, 0x06, 0x00, 0x00, 0x00,
    0xc2, 0xfe, 0xff, 0xff, 0x14, 0x00, 0x00, 0x00, 0x00, 0x00, 0x00, 0x01,
    0x1c, 0x00, 0x00, 0x00, 0x20, 0x00, 0x00, 0x00, 0x01, 0x00, 0x00, 0x00,
    0xb4, 0xfe, 0xff, 0xff, 0x00, 0x00, 0x00, 0x01, 0x01, 0x00, 0x00, 0x00,
    0x01, 0x00, 0x00, 0x00, 0x01, 0x00, 0x00, 0x00, 0x16, 0x00, 0x00, 0x00,
    0x03, 0x00, 0x00, 0x00, 0x15, 0x00, 0x00, 0x00, 0x09, 0x00, 0x00, 0x00,
    0x02, 0x00, 0x00, 0x00, 0xa6, 0xfe, 0xff, 0xff, 0x10, 0x00, 0x00, 0x00,
    0x00, 0x00, 0x00, 0x34, 0x0c, 0x00, 0x00, 0x00, 0x10, 0x00, 0x00, 0x00,
    0x84, 0xf1, 0xff, 0xff, 0x01, 0x00, 0x00, 0x00, 0x15, 0x00, 0x00, 0x00,
    0x02, 0x00, 0x00, 0x00, 0x14, 0x00, 0x00, 0x00, 0x0e, 0x00, 0x00, 0x00,
    0x5e, 0xff, 0xff, 0xff, 0x0c, 0x00, 0x00, 0x00, 0x10, 0x00, 0x00, 0x00,
    0x02, 0x00, 0x00, 0x00, 0x01, 0x00, 0x00, 0x00, 0x14, 0x00, 0x00, 0x00,
    0x02, 0x00, 0x00, 0x00, 0x13, 0x00, 0x00, 0x00, 0x07, 0x00, 0x00, 0x00,
    0x52, 0xff, 0xff, 0xff, 0x24, 0x00, 0x00, 0x00, 0x00, 0x00, 0x00, 0x05,
    0x34, 0x00, 0x00, 0x00, 0x38, 0x00, 0x00, 0x00, 0x03, 0x00, 0x00, 0x00,
    0x00, 0x00, 0x0e, 0x00, 0x18, 0x00, 0x17, 0x00, 0x10, 0x00, 0x0c, 0x00,
    0x08, 0x00, 0x04, 0x00, 0x0e, 0x00, 0x00, 0x00, 0x01, 0x00, 0x00, 0x00,
    0x04, 0x00, 0x00, 0x00, 0x01, 0x00, 0x00, 0x00, 0x04, 0x00, 0x00, 0x00,
    0x00, 0x00, 0x00, 0x01, 0x01, 0x00, 0x00, 0x00, 0x13, 0x00, 0x00, 0x00,
    0x01, 0x00, 0x00, 0x00, 0x12, 0x00, 0x00, 0x00, 0x46, 0xff, 0xff, 0xff,
    0x10, 0x00, 0x00, 0x00, 0x00, 0x00, 0x00, 0x34, 0x0c, 0x00, 0x00, 0x00,
    0x10, 0x00, 0x00, 0x00, 0x24, 0xf2, 0xff, 0xff, 0x01, 0x00, 0x00, 0x00,
    0x12, 0x00, 0x00, 0x00, 0x02, 0x00, 0x00, 0x00, 0x11, 0x00, 0x00, 0x00,
    0x0d, 0x00, 0x00, 0x00, 0x00, 0x00, 0x0a, 0x00, 0x10, 0x00, 0x0c, 0x00,
    0x08, 0x00, 0x04, 0x00, 0x0a, 0x00, 0x00, 0x00, 0x0c, 0x00, 0x00, 0x00,
    0x10, 0x00, 0x00, 0x00, 0x02, 0x00, 0x00, 0x00, 0x01, 0x00, 0x00, 0x00,
    0x11, 0x00, 0x00, 0x00, 0x02, 0x00, 0x00, 0x00, 0x10, 0x00, 0x00, 0x00,
    0x08, 0x00, 0x00, 0x00, 0x00, 0x00, 0x0e, 0x00, 0x18, 0x00, 0x14, 0x00,
    0x10, 0x00, 0x0c, 0x00, 0x0b, 0x00, 0x04, 0x00, 0x0e, 0x00, 0x00, 0x00,
    0x20, 0x00, 0x00, 0x00, 0x00, 0x00, 0x00, 0x01, 0x28, 0x00, 0x00, 0x00,
    0x2c, 0x00, 0x00, 0x00, 0x01, 0x00, 0x00, 0x00, 0x0c, 0x00, 0x10, 0x00,
    0x00, 0x00, 0x0c, 0x00, 0x08, 0x00, 0x07, 0x00, 0x0c, 0x00, 0x00, 0x00,
    0x00, 0x00, 0x00, 0x01, 0x01, 0x00, 0x00, 0x00, 0x01, 0x00, 0x00, 0x00,
    0x01, 0x00, 0x00, 0x00, 0x10, 0x00, 0x00, 0x00, 0x03, 0x00, 0x00, 0x00,
    0x0f, 0x00, 0x00, 0x00, 0x0a, 0x00, 0x00, 0x00, 0x03, 0x00, 0x00, 0x00,
    0x00, 0x00, 0x0e, 0x00, 0x14, 0x00, 0x00, 0x00, 0x10, 0x00, 0x0c, 0x00,
    0x0b, 0x00, 0x04, 0x00, 0x0e, 0x00, 0x00, 0x00, 0x10, 0x00, 0x00, 0x00,
    0x00, 0x00, 0x00, 0x34, 0x0c, 0x00, 0x00, 0x00, 0x10, 0x00, 0x00, 0x00,
    0xec, 0xf2, 0xff, 0xff, 0x01, 0x00, 0x00, 0x00, 0x0f, 0x00, 0x00, 0x00,
    0x02, 0x00, 0x00, 0x00, 0x00, 0x00, 0x00, 0x00, 0x0e, 0x00, 0x00, 0x00,
    0x01, 0x00, 0x00, 0x00, 0x1e, 0x00, 0x00, 0x00, 0x01, 0x00, 0x00, 0x00,
    0x00, 0x00, 0x00, 0x00, 0x1f, 0x00, 0x00, 0x00, 0xbc, 0x0c, 0x00, 0x00,
    0x68, 0x0c, 0x00, 0x00, 0x14, 0x0c, 0x00, 0x00, 0xd8, 0x0b, 0x00, 0x00,
    0x9c, 0x0b, 0x00, 0x00, 0x5c, 0x0b, 0x00, 0x00, 0x04, 0x0b, 0x00, 0x00,
    0xc4, 0x0a, 0x00, 0x00, 0x84, 0x0a, 0x00, 0x00, 0x3c, 0x0a, 0x00, 0x00,
    0xf4, 0x09, 0x00, 0x00, 0xb0, 0x09, 0x00, 0x00, 0x6c, 0x09, 0x00, 0x00,
    0x2c, 0x09, 0x00, 0x00, 0xec, 0x08, 0x00, 0x00, 0x6c, 0x08, 0x00, 0x00,
    0x94, 0x07, 0x00, 0x00, 0xe8, 0x06, 0x00, 0x00, 0x64, 0x06, 0x00, 0x00,
    0xec, 0x05, 0x00, 0x00, 0x74, 0x05, 0x00, 0x00, 0xf4, 0x04, 0x00, 0x00,
    0x14, 0x04, 0x00, 0x00, 0x60, 0x03, 0x00, 0x00, 0xdc, 0x02, 0x00, 0x00,
    0x60, 0x02, 0x00, 0x00, 0xe4, 0x01, 0x00, 0x00, 0x74, 0x01, 0x00, 0x00,
    0xe0, 0x00, 0x00, 0x00, 0x60, 0x00, 0x00, 0x00, 0x04, 0x00, 0x00, 0x00,
    0xd6, 0xf3, 0xff, 0xff, 0x00, 0x00, 0x00, 0x01, 0x14, 0x00, 0x00, 0x00,
    0x1c, 0x00, 0x00, 0x00, 0x1c, 0x00, 0x00, 0x00, 0x1f, 0x00, 0x00, 0x00,
    0x34, 0x00, 0x00, 0x00, 0x02, 0x00, 0x00, 0x00, 0xff, 0xff, 0xff, 0xff,
    0x03, 0x00, 0x00, 0x00, 0xbc, 0xf3, 0xff, 0xff, 0x1b, 0x00, 0x00, 0x00,
    0x53, 0x74, 0x61, 0x74, 0x65, 0x66, 0x75, 0x6c, 0x50, 0x61, 0x72, 0x74,
    0x69, 0x74, 0x69, 0x6f, 0x6e, 0x65, 0x64, 0x43, 0x61, 0x6c, 0x6c, 0x5f,
    0x31, 0x3a, 0x30, 0x00, 0x02, 0x00, 0x00, 0x00, 0x01, 0x00, 0x00, 0x00,
    0x03, 0x00, 0x00, 0x00, 0x2e, 0xf4, 0xff, 0xff, 0x00, 0x00, 0x00, 0x01,
    0x14, 0x00, 0x00, 0x00, 0x1c, 0x00, 0x00, 0x00, 0x1c, 0x00, 0x00, 0x00,
    0x1e, 0x00, 0x00, 0x00, 0x58, 0x00, 0x00, 0x00, 0x02, 0x00, 0x00, 0x00,
    0xff, 0xff, 0xff, 0xff, 0x03, 0x00, 0x00, 0x00, 0x14, 0xf4, 0xff, 0xff,
    0x3c, 0x00, 0x00, 0x00, 0x73, 0x65, 0x71, 0x75, 0x65, 0x6e, 0x74, 0x69,
    0x61, 0x6c, 0x5f, 0x31, 0x2f, 0x64, 0x65, 0x6e, 0x73, 0x65, 0x5f, 0x31,
    0x5f, 0x32, 0x2f, 0x4d, 0x61, 0x74, 0x4d, 0x75, 0x6c, 0x3b, 0x73, 0x65,
    0x71, 0x75, 0x65, 0x6e, 0x74, 0x69, 0x61, 0x6c, 0x5f, 0x31, 0x2f, 0x64,
    0x65, 0x6e, 0x73, 0x65, 0x5f, 0x31, 0x5f, 0x32, 0x2f, 0x42, 0x69, 0x61,
    0x73, 0x41, 0x64, 0x64, 0x00, 0x00, 0x00, 0x00, 0x02, 0x00, 0x00, 0x00,
    0x01, 0x00, 0x00, 0x00, 0x03, 0x00, 0x00, 0x00, 0xaa, 0xf4, 0xff, 0xff,
    0x00, 0x00, 0x00, 0x01, 0x14, 0x00, 0x00, 0x00, 0x1c, 0x00, 0x00, 0x00,
    0x1c, 0x00, 0x00, 0x00, 0x1d, 0x00, 0x00, 0x00, 0x6c, 0x00, 0x00, 0x00,
    0x02, 0x00, 0x00, 0x00, 0xff, 0xff, 0xff, 0xff, 0x20, 0x00, 0x00, 0x00,
    0x90, 0xf4, 0xff, 0xff, 0x52, 0x00, 0x00, 0x00, 0x73, 0x65, 0x71, 0x75,
    0x65, 0x6e, 0x74, 0x69, 0x61, 0x6c, 0x5f, 0x31, 0x2f, 0x64, 0x65, 0x6e,
    0x73, 0x65, 0x5f, 0x31, 0x2f, 0x4d, 0x61, 0x74, 0x4d, 0x75, 0x6c, 0x3b,
    0x73, 0x65, 0x71, 0x75, 0x65, 0x6e, 0x74, 0x69, 0x61, 0x6c, 0x5f, 0x31,
    0x2f, 0x64, 0x65, 0x6e, 0x73, 0x65, 0x5f, 0x31, 0x2f, 0x52, 0x65, 0x6c,
    0x75, 0x3b, 0x73, 0x65, 0x71, 0x75, 0x65, 0x6e, 0x74, 0x69, 0x61, 0x6c,
    0x5f, 0x31, 0x2f, 0x64, 0x65, 0x6e, 0x73, 0x65, 0x5f, 0x31, 0x2f, 0x42,
    0x69, 0x61, 0x73, 0x41, 0x64, 0x64, 0x00, 0x00, 0x02, 0x00, 0x00, 0x00,
    0x01, 0x00, 0x00, 0x00, 0x20, 0x00, 0x00, 0x00, 0x3a, 0xf5, 0xff, 0xff,
    0x00, 0x00, 0x00, 0x01, 0x14, 0x00, 0x00, 0x00, 0x1c, 0x00, 0x00, 0x00,
    0x1c, 0x00, 0x00, 0x00, 0x1c, 0x00, 0x00, 0x00, 0x48, 0x00, 0x00, 0x00,
    0x02, 0x00, 0x00, 0x00, 0xff, 0xff, 0xff, 0xff, 0x10, 0x00, 0x00, 0x00,
    0x20, 0xf5, 0xff, 0xff, 0x2c, 0x00, 0x00, 0x00, 0x73, 0x65, 0x71, 0x75,
    0x65, 0x6e, 0x74, 0x69, 0x61, 0x6c, 0x5f, 0x31, 0x2f, 0x67, 0x6c, 0x6f,
    0x62, 0x61, 0x6c, 0x5f, 0x61, 0x76, 0x65, 0x72, 0x61, 0x67, 0x65, 0x5f,
    0x70, 0x6f, 0x6f, 0x6c, 0x69, 0x6e, 0x67, 0x31, 0x64, 0x5f, 0x31, 0x2f,
    0x4d, 0x65, 0x61, 0x6e, 0x00, 0x00, 0x00, 0x00, 0x02, 0x00, 0x00, 0x00,
    0x01, 0x00, 0x00, 0x00, 0x10, 0x00, 0x00, 0x00, 0xa6, 0xf5, 0xff, 0xff,
    0x00, 0x00, 0x00, 0x01, 0x14, 0x00, 0x00, 0x00, 0x20, 0x00, 0x00, 0x00,
    0x20, 0x00, 0x00, 0x00, 0x1b, 0x00, 0x00, 0x00, 0x50, 0x00, 0x00, 0x00,
    0x03, 0x00, 0x00, 0x00, 0xff, 0xff, 0xff, 0xff, 0x0c, 0x00, 0x00, 0x00,
    0x10, 0x00, 0x00, 0x00, 0x90, 0xf5, 0xff, 0xff, 0x30, 0x00, 0x00, 0x00,
    0x73, 0x65, 0x71, 0x75, 0x65, 0x6e, 0x74, 0x69, 0x61, 0x6c, 0x5f, 0x31,
    0x2f, 0x6d, 0x61, 0x78, 0x5f, 0x70, 0x6f, 0x6f, 0x6c, 0x69, 0x6e, 0x67,
    0x31, 0x64, 0x5f, 0x31, 0x5f, 0x32, 0x2f, 0x4d, 0x61, 0x78, 0x50, 0x6f,
    0x6f, 0x6c, 0x31, 0x64, 0x2f, 0x53, 0x71, 0x75, 0x65, 0x65, 0x7a, 0x65,
    0x00, 0x00, 0x00, 0x00, 0x03, 0x00, 0x00, 0x00, 0x01, 0x00, 0x00, 0x00,
    0x0c, 0x00, 0x00, 0x00, 0x10, 0x00, 0x00, 0x00, 0x1e, 0xf6, 0xff, 0xff,
    0x00, 0x00, 0x00, 0x01, 0x14, 0x00, 0x00, 0x00, 0x24, 0x00, 0x00, 0x00,
    0x24, 0x00, 0x00, 0x00, 0x1a, 0x00, 0x00, 0x00, 0x4c, 0x00, 0x00, 0x00,
    0x04, 0x00, 0x00, 0x00, 0xff, 0xff, 0xff, 0xff, 0x01, 0x00, 0x00, 0x00,
    0x0c, 0x00, 0x00, 0x00, 0x10, 0x00, 0x00, 0x00, 0x0c, 0xf6, 0xff, 0xff,
    0x28, 0x00, 0x00, 0x00, 0x73, 0x65, 0x71, 0x75, 0x65, 0x6e, 0x74, 0x69,
    0x61, 0x6c, 0x5f, 0x31, 0x2f, 0x6d, 0x61, 0x78, 0x5f, 0x70, 0x6f, 0x6f,
    0x6c, 0x69, 0x6e, 0x67, 0x31, 0x64, 0x5f, 0x31, 0x5f, 0x32, 0x2f, 0x4d,
    0x61, 0x78, 0x50, 0x6f, 0x6f, 0x6c, 0x31, 0x64, 0x00, 0x00, 0x00, 0x00,
    0x04, 0x00, 0x00, 0x00, 0x01, 0x00, 0x00, 0x00, 0x01, 0x00, 0x00, 0x00,
    0x0c, 0x00, 0x00, 0x00, 0x10, 0x00, 0x00, 0x00, 0x96, 0xf6, 0xff, 0xff,
    0x00, 0x00, 0x00, 0x01, 0x14, 0x00, 0x00, 0x00, 0x24, 0x00, 0x00, 0x00,
    0x24, 0x00, 0x00, 0x00, 0x19, 0x00, 0x00, 0x00, 0x54, 0x00, 0x00, 0x00,
    0x04, 0x00, 0x00, 0x00, 0xff, 0xff, 0xff, 0xff, 0x01, 0x00, 0x00, 0x00,
    0x32, 0x00, 0x00, 0x00, 0x10, 0x00, 0x00, 0x00, 0x84, 0xf6, 0xff, 0xff,
    0x33, 0x00, 0x00, 0x00, 0x73, 0x65, 0x71, 0x75, 0x65, 0x6e, 0x74, 0x69,
    0x61, 0x6c, 0x5f, 0x31, 0x2f, 0x6d, 0x61, 0x78, 0x5f, 0x70, 0x6f, 0x6f,
    0x6c, 0x69, 0x6e, 0x67, 0x31, 0x64, 0x5f, 0x31, 0x5f, 0x32, 0x2f, 0x4d,
    0x61, 0x78, 0x50, 0x6f, 0x6f, 0x6c, 0x31, 0x64, 0x2f, 0x45, 0x78, 0x70,
    0x61, 0x6e, 0x64, 0x44, 0x69, 0x6d, 0x73, 0x00, 0x04, 0x00, 0x00, 0x00,
    0x01, 0x00, 0x00, 0x00, 0x01, 0x00, 0x00, 0x00, 0x32, 0x00, 0x00, 0x00,
    0x10, 0x00, 0x00, 0x00, 0x16, 0xf7, 0xff, 0xff, 0x00, 0x00, 0x00, 0x01,
    0x14, 0x00, 0x00, 0x00, 0x20, 0x00, 0x00, 0x00, 0x20, 0x00, 0x00, 0x00,
    0x18, 0x00, 0x00, 0x00, 0x88, 0x00, 0x00, 0x00, 0x03, 0x00, 0x00, 0x00,
    0xff, 0xff, 0xff, 0xff, 0x32, 0x00, 0x00, 0x00, 0x10, 0x00, 0x00, 0x00,
    0x00, 0xf7, 0xff, 0xff, 0x69, 0x00, 0x00, 0x00, 0x73, 0x65, 0x71, 0x75,
    0x65, 0x6e, 0x74, 0x69, 0x61, 0x6c, 0x5f, 0x31, 0x2f, 0x63, 0x6f, 0x6e,
    0x76, 0x31, 0x64, 0x5f, 0x31, 0x5f, 0x32, 0x2f, 0x52, 0x65, 0x6c, 0x75,
    0x3b, 0x73, 0x65, 0x71, 0x75, 0x65, 0x6e, 0x74, 0x69, 0x61, 0x6c, 0x5f,
    0x31, 0x2f, 0x63, 0x6f, 0x6e, 0x76, 0x31, 0x64, 0x5f, 0x31, 0x5f, 0x32,
    0x2f, 0x42, 0x69, 0x61, 0x73, 0x41, 0x64, 0x64, 0x3b, 0x73, 0x65, 0x71,
    0x75, 0x65, 0x6e, 0x74, 0x69, 0x61, 0x6c, 0x5f, 0x31, 0x2f, 0x63, 0x6f,
    0x6e, 0x76, 0x31, 0x64, 0x5f, 0x31, 0x5f, 0x32, 0x2f, 0x63, 0x6f, 0x6e,
    0x76, 0x6f, 0x6c, 0x75, 0x74, 0x69, 0x6f, 0x6e, 0x2f, 0x53, 0x71, 0x75,
    0x65, 0x65, 0x7a, 0x65, 0x3b, 0x00, 0x00, 0x00, 0x03, 0x00, 0x00, 0x00,
    0x01, 0x00, 0x00, 0x00, 0x32, 0x00, 0x00, 0x00, 0x10, 0x00, 0x00, 0x00,
    0xc6, 0xf7, 0xff, 0xff, 0x00, 0x00, 0x00, 0x01, 0x14, 0x00, 0x00, 0x00,
    0x24, 0x00, 0x00, 0x00, 0x24, 0x00, 0x00, 0x00, 0x17, 0x00, 0x00, 0x00,
    0xb0, 0x00, 0x00, 0x00, 0x04, 0x00, 0x00, 0x00, 0xff, 0xff, 0xff, 0xff,
    0x01, 0x00, 0x00, 0x00, 0x32, 0x00, 0x00, 0x00, 0x10, 0x00, 0x00, 0x00,
    0xb4, 0xf7, 0xff, 0xff, 0x8d, 0x00, 0x00, 0x00, 0x73, 0x65, 0x71, 0x75,
    0x65, 0x6e, 0x74, 0x69, 0x61, 0x6c, 0x5f, 0x31, 0x2f, 0x63, 0x6f, 0x6e,
    0x76, 0x31, 0x64, 0x5f, 0x31, 0x5f, 0x32, 0x2f, 0x52, 0x65, 0x6c, 0x75,
    0x3b, 0x73, 0x65, 0x71, 0x75, 0x65, 0x6e, 0x74, 0x69, 0x61, 0x6c, 0x5f,
    0x31, 0x2f, 0x63, 0x6f, 0x6e, 0x76, 0x31, 0x64, 0x5f, 0x31, 0x5f, 0x32,
    0x2f, 0x42, 0x69, 0x61, 0x73, 0x41, 0x64, 0x64, 0x3b, 0x73, 0x65, 0x71,
    0x75, 0x65, 0x6e, 0x74, 0x69, 0x61, 0x6c, 0x5f, 0x31, 0x2f, 0x63, 0x6f,
    0x6e, 0x76, 0x31, 0x64, 0x5f, 0x31, 0x5f, 0x32, 0x2f, 0x63, 0x6f, 0x6e,
    0x76, 0x6f, 0x6c, 0x75, 0x74, 0x69, 0x6f, 0x6e, 0x2f, 0x53, 0x71, 0x75,
    0x65, 0x65, 0x7a, 0x65, 0x3b, 0x3b, 0x73, 0x65, 0x71, 0x75, 0x65, 0x6e,
    0x74, 0x69, 0x61, 0x6c, 0x5f, 0x31, 0x2f, 0x63, 0x6f, 0x6e, 0x76, 0x31,
    0x64, 0x5f, 0x31, 0x5f, 0x32, 0x2f, 0x63, 0x6f, 0x6e, 0x76, 0x6f, 0x6c,
    0x75, 0x74, 0x69, 0x6f, 0x6e, 0x00, 0x00, 0x00, 0x04, 0x00, 0x00, 0x00,
    0x01, 0x00, 0x00, 0x00, 0x01, 0x00, 0x00, 0x00, 0x32, 0x00, 0x00, 0x00,
    0x10, 0x00, 0x00, 0x00, 0xa2, 0xf8, 0xff, 0xff, 0x00, 0x00, 0x00, 0x01,
    0x14, 0x00, 0x00, 0x00, 0x24, 0x00, 0x00, 0x00, 0x24, 0x00, 0x00, 0x00,
    0x16, 0x00, 0x00, 0x00, 0x50, 0x00, 0x00, 0x00, 0x04, 0x00, 0x00, 0x00,
    0xff, 0xff, 0xff, 0xff, 0x01, 0x00, 0x00, 0x00, 0x32, 0x00, 0x00, 0x00,
    0x08, 0x00, 0x00, 0x00, 0x90, 0xf8, 0xff, 0xff, 0x2e, 0x00, 0x00, 0x00,
    0x73, 0x65, 0x71, 0x75, 0x65, 0x6e, 0x74, 0x69, 0x61, 0x6c, 0x5f, 0x31,
    0x2f, 0x63, 0x6f, 0x6e, 0x76, 0x31, 0x64, 0x5f, 0x31, 0x5f, 0x32, 0x2f,
    0x63, 0x6f, 0x6e, 0x76, 0x6f, 0x6c, 0x75, 0x74, 0x69, 0x6f, 0x6e, 0x2f,
    0x45, 0x78, 0x70, 0x61, 0x6e, 0x64, 0x44, 0x69, 0x6d, 0x73, 0x00, 0x00,
    0x04, 0x00, 0x00, 0x00, 0x01, 0x00, 0x00, 0x00, 0x01, 0x00, 0x00, 0x00,
    0x32, 0x00, 0x00, 0x00, 0x08, 0x00, 0x00, 0x00, 0x1e, 0xf9, 0xff, 0xff,
    0x00, 0x00, 0x00, 0x01, 0x14, 0x00, 0x00, 0x00, 0x20, 0x00, 0x00, 0x00,
    0x20, 0x00, 0x00, 0x00, 0x15, 0x00, 0x00, 0x00, 0x4c, 0x00, 0x00, 0x00,
    0x03, 0x00, 0x00, 0x00, 0xff, 0xff, 0xff, 0xff, 0x32, 0x00, 0x00, 0x00,
    0x08, 0x00, 0x00, 0x00, 0x08, 0xf9, 0xff, 0xff, 0x2e, 0x00, 0x00, 0x00,
    0x73, 0x65, 0x71, 0x75, 0x65, 0x6e, 0x74, 0x69, 0x61, 0x6c, 0x5f, 0x31,
    0x2f, 0x6d, 0x61, 0x78, 0x5f, 0x70, 0x6f, 0x6f, 0x6c, 0x69, 0x6e, 0x67,
    0x31, 0x64, 0x5f, 0x31, 0x2f, 0x4d, 0x61, 0x78, 0x50, 0x6f, 0x6f, 0x6c,
    0x31, 0x64, 0x2f, 0x53, 0x71, 0x75, 0x65, 0x65, 0x7a, 0x65, 0x00, 0x00,
    0x03, 0x00, 0x00, 0x00, 0x01, 0x00, 0x00, 0x00, 0x32, 0x00, 0x00, 0x00,
    0x08, 0x00, 0x00, 0x00, 0x92, 0xf9, 0xff, 0xff, 0x00, 0x00, 0x00, 0x01,
    0x14, 0x00, 0x00, 0x00, 0x24, 0x00, 0x00, 0x00, 0x24, 0x00, 0x00, 0x00,
    0x14, 0x00, 0x00, 0x00, 0x48, 0x00, 0x00, 0x00, 0x04, 0x00, 0x00, 0x00,
    0xff, 0xff, 0xff, 0xff, 0x01, 0x00, 0x00, 0x00, 0x32, 0x00, 0x00, 0x00,
    0x08, 0x00, 0x00, 0x00, 0x80, 0xf9, 0xff, 0xff, 0x26, 0x00, 0x00, 0x00,
    0x73, 0x65, 0x71, 0x75, 0x65, 0x6e, 0x74, 0x69, 0x61, 0x6c, 0x5f, 0x31,
    0x2f, 0x6d, 0x61, 0x78, 0x5f, 0x70, 0x6f, 0x6f, 0x6c, 0x69, 0x6e, 0x67,
    0x31, 0x64, 0x5f, 0x31, 0x2f, 0x4d, 0x61, 0x78, 0x50, 0x6f, 0x6f, 0x6c,
    0x31, 0x64, 0x00, 0x00, 0x04, 0x00, 0x00, 0x00, 0x01, 0x00, 0x00, 0x00,
    0x01, 0x00, 0x00, 0x00, 0x32, 0x00, 0x00, 0x00, 0x08, 0x00, 0x00, 0x00,
    0x06, 0xfa, 0xff, 0xff, 0x00, 0x00, 0x00, 0x01, 0x14, 0x00, 0x00, 0x00,
    0x24, 0x00, 0x00, 0x00, 0x24, 0x00, 0x00, 0x00, 0x13, 0x00, 0x00, 0x00,
    0x54, 0x00, 0x00, 0x00, 0x04, 0x00, 0x00, 0x00, 0xff, 0xff, 0xff, 0xff,
    0x01, 0x00, 0x00, 0x00, 0xc8, 0x00, 0x00, 0x00, 0x08, 0x00, 0x00, 0x00,
    0xf4, 0xf9, 0xff, 0xff, 0x31, 0x00, 0x00, 0x00, 0x73, 0x65, 0x71, 0x75,
    0x65, 0x6e, 0x74, 0x69, 0x61, 0x6c, 0x5f, 0x31, 0x2f, 0x6d, 0x61, 0x78,
    0x5f, 0x70, 0x6f, 0x6f, 0x6c, 0x69, 0x6e, 0x67, 0x31, 0x64, 0x5f, 0x31,
    0x2f, 0x4d, 0x61, 0x78, 0x50, 0x6f, 0x6f, 0x6c, 0x31, 0x64, 0x2f, 0x45,
    0x78, 0x70, 0x61, 0x6e, 0x64, 0x44, 0x69, 0x6d, 0x73, 0x00, 0x00, 0x00,
    0x04, 0x00, 0x00, 0x00, 0x01, 0x00, 0x00, 0x00, 0x01, 0x00, 0x00, 0x00,
    0xc8, 0x00, 0x00, 0x00, 0x08, 0x00, 0x00, 0x00, 0x86, 0xfa, 0xff, 0xff,
    0x00, 0x00, 0x00, 0x01, 0x14, 0x00, 0x00, 0x00, 0x20, 0x00, 0x00, 0x00,
    0x20, 0x00, 0x00, 0x00, 0x12, 0x00, 0x00, 0x00, 0x80, 0x00, 0x00, 0x00,
    0x03, 0x00, 0x00, 0x00, 0xff, 0xff, 0xff, 0xff, 0xc8, 0x00, 0x00, 0x00,
    0x08, 0x00, 0x00, 0x00, 0x70, 0xfa, 0xff, 0xff, 0x63, 0x00, 0x00, 0x00,
    0x73, 0x65, 0x71, 0x75, 0x65, 0x6e, 0x74, 0x69, 0x61, 0x6c, 0x5f, 0x31,
    0x2f, 0x63, 0x6f, 0x6e, 0x76, 0x31, 0x64, 0x5f, 0x31, 0x2f, 0x52, 0x65,
    0x6c, 0x75, 0x3b, 0x73, 0x65, 0x71, 0x75, 0x65, 0x6e, 0x74, 0x69, 0x61,
    0x6c, 0x5f, 0x31, 0x2f, 0x63, 0x6f, 0x6e, 0x76, 0x31, 0x64, 0x5f, 0x31,
    0x2f, 0x42, 0x69, 0x61, 0x73, 0x41, 0x64, 0x64, 0x3b, 0x73, 0x65, 0x71,
    0x75, 0x65, 0x6e, 0x74, 0x69, 0x61, 0x6c, 0x5f, 0x31, 0x2f, 0x63, 0x6f,
    0x6e, 0x76, 0x31, 0x64, 0x5f, 0x31, 0x2f, 0x63, 0x6f, 0x6e, 0x76, 0x6f,
    0x6c, 0x75, 0x74, 0x69, 0x6f, 0x6e, 0x2f, 0x53, 0x71, 0x75, 0x65, 0x65,
    0x7a, 0x65, 0x3b, 0x00, 0x03, 0x00, 0x00, 0x00, 0x01, 0x00, 0x00, 0x00,
    0xc8, 0x00, 0x00, 0x00, 0x08, 0x00, 0x00, 0x00, 0x2e, 0xfb, 0xff, 0xff,
    0x00, 0x00, 0x00, 0x01, 0x14, 0x00, 0x00, 0x00, 0x24, 0x00, 0x00, 0x00,
    0x24, 0x00, 0x00, 0x00, 0x11, 0x00, 0x00, 0x00, 0xa8, 0x00, 0x00, 0x00,
    0x04, 0x00, 0x00, 0x00, 0xff, 0xff, 0xff, 0xff, 0x01, 0x00, 0x00, 0x00,
    0xc8, 0x00, 0x00, 0x00, 0x08, 0x00, 0x00, 0x00, 0x1c, 0xfb, 0xff, 0xff,
    0x85, 0x00, 0x00, 0x00, 0x73, 0x65, 0x71, 0x75, 0x65, 0x6e, 0x74, 0x69,
    0x61, 0x6c, 0x5f, 0x31, 0x2f, 0x63, 0x6f, 0x6e, 0x76, 0x31, 0x64, 0x5f,
    0x31, 0x2f, 0x52, 0x65, 0x6c, 0x75, 0x3b, 0x73, 0x65, 0x71, 0x75, 0x65,
    0x6e, 0x74, 0x69, 0x61, 0x6c, 0x5f, 0x31, 0x2f, 0x63, 0x6f, 0x6e, 0x76,
    0x31, 0x64, 0x5f, 0x31, 0x2f, 0x42, 0x69, 0x61, 0x73, 0x41, 0x64, 0x64,
    0x3b, 0x73, 0x65, 0x71, 0x75, 0x65, 0x6e, 0x74, 0x69, 0x61, 0x6c, 0x5f,
    0x31, 0x2f, 0x63, 0x6f, 0x6e, 0x76, 0x31, 0x64, 0x5f, 0x31, 0x2f, 0x63,
    0x6f, 0x6e, 0x76, 0x6f, 0x6c, 0x75, 0x74, 0x69, 0x6f, 0x6e, 0x2f, 0x53,
    0x71, 0x75, 0x65, 0x65, 0x7a, 0x65, 0x3b, 0x3b, 0x73, 0x65, 0x71, 0x75,
    0x65, 0x6e, 0x74, 0x69, 0x61, 0x6c, 0x5f, 0x31, 0x2f, 0x63, 0x6f, 0x6e,
    0x76, 0x31, 0x64, 0x5f, 0x31, 0x2f, 0x63, 0x6f, 0x6e, 0x76, 0x6f, 0x6c,
    0x75, 0x74, 0x69, 0x6f, 0x6e, 0x00, 0x00, 0x00, 0x04, 0x00, 0x00, 0x00,
    0x01, 0x00, 0x00, 0x00, 0x01, 0x00, 0x00, 0x00, 0xc8, 0x00, 0x00, 0x00,
    0x08, 0x00, 0x00, 0x00, 0x02, 0xfc, 0xff, 0xff, 0x00, 0x00, 0x00, 0x01,
    0x14, 0x00, 0x00, 0x00, 0x24, 0x00, 0x00, 0x00, 0x24, 0x00, 0x00, 0x00,
    0x10, 0x00, 0x00, 0x00, 0x50, 0x00, 0x00, 0x00, 0x04, 0x00, 0x00, 0x00,
    0xff, 0xff, 0xff, 0xff, 0x01, 0x00, 0x00, 0x00, 0xc8, 0x00, 0x00, 0x00,
    0x03, 0x00, 0x00, 0x00, 0xf0, 0xfb, 0xff, 0xff, 0x2c, 0x00, 0x00, 0x00,
    0x73, 0x65, 0x71, 0x75, 0x65, 0x6e, 0x74, 0x69, 0x61, 0x6c, 0x5f, 0x31,
    0x2f, 0x63, 0x6f, 0x6e, 0x76, 0x31, 0x64, 0x5f, 0x31, 0x2f, 0x63, 0x6f,
    0x6e, 0x76, 0x6f, 0x6c, 0x75, 0x74, 0x69, 0x6f, 0x6e, 0x2f, 0x45, 0x78,
    0x70, 0x61, 0x6e, 0x64, 0x44, 0x69, 0x6d, 0x73, 0x00, 0x00, 0x00, 0x00,
    0x04, 0x00, 0x00, 0x00, 0x01, 0x00, 0x00, 0x00, 0x01, 0x00, 0x00, 0x00,
    0xc8, 0x00, 0x00, 0x00, 0x03, 0x00, 0x00, 0x00, 0xca, 0xfd, 0xff, 0xff,
    0x00, 0x00, 0x00, 0x01, 0x14, 0x00, 0x00, 0x00, 0x14, 0x00, 0x00, 0x00,
    0x0f, 0x00, 0x00, 0x00, 0x00, 0x00, 0x00, 0x02, 0x20, 0x00, 0x00, 0x00,
    0x58, 0xfc, 0xff, 0xff, 0x10, 0x00, 0x00, 0x00, 0x61, 0x72, 0x69, 0x74,
    0x68, 0x2e, 0x63, 0x6f, 0x6e, 0x73, 0x74, 0x61, 0x6e, 0x74, 0x31, 0x33,
    0x00, 0x00, 0x00, 0x00, 0x00, 0x00, 0x00, 0x00, 0x06, 0xfe, 0xff, 0xff,
    0x00, 0x00, 0x00, 0x01, 0x14, 0x00, 0x00, 0x00, 0x14, 0x00, 0x00, 0x00,
    0x0e, 0x00, 0x00, 0x00, 0x00, 0x00, 0x00, 0x02, 0x20, 0x00, 0x00, 0x00,
    0x94, 0xfc, 0xff, 0xff, 0x10, 0x00, 0x00, 0x00, 0x61, 0x72, 0x69, 0x74,
    0x68, 0x2e, 0x63, 0x6f, 0x6e, 0x73, 0x74, 0x61, 0x6e, 0x74, 0x31, 0x32,
    0x00, 0x00, 0x00, 0x00, 0x00, 0x00, 0x00, 0x00, 0x46, 0xfd, 0xff, 0xff,
    0x00, 0x00, 0x00, 0x01, 0x10, 0x00, 0x00, 0x00, 0x10, 0x00, 0x00, 0x00,
    0x0d, 0x00, 0x00, 0x00, 0x20, 0x00, 0x00, 0x00, 0xcc, 0xfc, 0xff, 0xff,
    0x10, 0x00, 0x00, 0x00, 0x61, 0x72, 0x69, 0x74, 0x68, 0x2e, 0x63, 0x6f,
    0x6e, 0x73, 0x74, 0x61, 0x6e, 0x74, 0x31, 0x31, 0x00, 0x00, 0x00, 0x00,
    0x02, 0x00, 0x00, 0x00, 0x20, 0x00, 0x00, 0x00, 0x10, 0x00, 0x00, 0x00,
    0x86, 0xfd, 0xff, 0xff, 0x00, 0x00, 0x00, 0x01, 0x10, 0x00, 0x00, 0x00,
    0x10, 0x00, 0x00, 0x00, 0x0c, 0x00, 0x00, 0x00, 0x20, 0x00, 0x00, 0x00,
    0x0c, 0xfd, 0xff, 0xff, 0x10, 0x00, 0x00, 0x00, 0x61, 0x72, 0x69, 0x74,
    0x68, 0x2e, 0x63, 0x6f, 0x6e, 0x73, 0x74, 0x61, 0x6e, 0x74, 0x31, 0x30,
    0x00, 0x00, 0x00, 0x00, 0x02, 0x00, 0x00, 0x00, 0x03, 0x00, 0x00, 0x00,
    0x20, 0x00, 0x00, 0x00, 0xc6, 0xfd, 0xff, 0xff, 0x00, 0x00, 0x00, 0x01,
    0x10, 0x00, 0x00, 0x00, 0x10, 0x00, 0x00, 0x00, 0x0b, 0x00, 0x00, 0x00,
    0x1c, 0x00, 0x00, 0x00, 0x4c, 0xfd, 0xff, 0xff, 0x0f, 0x00, 0x00, 0x00,
    0x61, 0x72, 0x69, 0x74, 0x68, 0x2e, 0x63, 0x6f, 0x6e, 0x73, 0x74, 0x61,
    0x6e, 0x74, 0x39, 0x00, 0x04, 0x00, 0x00, 0x00, 0x08, 0x00, 0x00, 0x00,
    0x01, 0x00, 0x00, 0x00, 0x05, 0x00, 0x00, 0x00, 0x03, 0x00, 0x00, 0x00,
    0x0a, 0xfe, 0xff, 0xff, 0x00, 0x00, 0x00, 0x01, 0x10, 0x00, 0x00, 0x00,
    0x10, 0x00, 0x00, 0x00, 0x0a, 0x00, 0x00, 0x00, 0x1c, 0x00, 0x00, 0x00,
    0x90, 0xfd, 0xff, 0xff, 0x0f, 0x00, 0x00, 0x00, 0x61, 0x72, 0x69, 0x74,
    0x68, 0x2e, 0x63, 0x6f, 0x6e, 0x73, 0x74, 0x61, 0x6e, 0x74, 0x38, 0x00,
    0x04, 0x00, 0x00, 0x00, 0x10, 0x00, 0x00, 0x00, 0x01, 0x00, 0x00, 0x00,
    0x05, 0x00, 0x00, 0x00, 0x08, 0x00, 0x00, 0x00, 0x4a, 0xff, 0xff, 0xff,
    0x00, 0x00, 0x00, 0x01, 0x14, 0x00, 0x00, 0x00, 0x14, 0x00, 0x00, 0x00,
    0x09, 0x00, 0x00, 0x00, 0x00, 0x00, 0x00, 0x02, 0x1c, 0x00, 0x00, 0x00,
    0xd8, 0xfd, 0xff, 0xff, 0x0f, 0x00, 0x00, 0x00, 0x61, 0x72, 0x69, 0x74,
    0x68, 0x2e, 0x63, 0x6f, 0x6e, 0x73, 0x74, 0x61, 0x6e, 0x74, 0x37, 0x00,
    0x01, 0x00, 0x00, 0x00, 0x03, 0x00, 0x00, 0x00, 0x86, 0xff, 0xff, 0xff,
    0x00, 0x00, 0x00, 0x01, 0x14, 0x00, 0x00, 0x00, 0x14, 0x00, 0x00, 0x00,
    0x08, 0x00, 0x00, 0x00, 0x00, 0x00, 0x00, 0x02, 0x1c, 0x00, 0x00, 0x00,
    0x14, 0xfe, 0xff, 0xff, 0x0f, 0x00, 0x00, 0x00, 0x61, 0x72, 0x69, 0x74,
    0x68, 0x2e, 0x63, 0x6f, 0x6e, 0x73, 0x74, 0x61, 0x6e, 0x74, 0x36, 0x00,
    0x01, 0x00, 0x00, 0x00, 0x03, 0x00, 0x00, 0x00, 0xc2, 0xff, 0xff, 0xff,
    0x00, 0x00, 0x00, 0x01, 0x14, 0x00, 0x00, 0x00, 0x14, 0x00, 0x00, 0x00,
    0x07, 0x00, 0x00, 0x00, 0x00, 0x00, 0x00, 0x02, 0x1c, 0x00, 0x00, 0x00,
    0x50, 0xfe, 0xff, 0xff, 0x0f, 0x00, 0x00, 0x00, 0x61, 0x72, 0x69, 0x74,
    0x68, 0x2e, 0x63, 0x6f, 0x6e, 0x73, 0x74, 0x61, 0x6e, 0x74, 0x35, 0x00,
    0x01, 0x00, 0x00, 0x00, 0x03, 0x00, 0x00, 0x00, 0x00, 0x00, 0x16, 0x00,
    0x1c, 0x00, 0x18, 0x00, 0x17, 0x00, 0x10, 0x00, 0x0c, 0x00, 0x08, 0x00,
    0x00, 0x00, 0x00, 0x00, 0x00, 0x00, 0x07, 0x00, 0x16, 0x00, 0x00, 0x00,
    0x00, 0x00, 0x00, 0x01, 0x14, 0x00, 0x00, 0x00, 0x14, 0x00, 0x00, 0x00,
    0x06, 0x00, 0x00, 0x00, 0x00, 0x00, 0x00, 0x02, 0x1c, 0x00, 0x00, 0x00,
    0xa4, 0xfe, 0xff, 0xff, 0x0f, 0x00, 0x00, 0x00, 0x61, 0x72, 0x69, 0x74,
    0x68, 0x2e, 0x63, 0x6f, 0x6e, 0x73, 0x74, 0x61, 0x6e, 0x74, 0x34, 0x00,
    0x01, 0x00, 0x00, 0x00, 0x03, 0x00, 0x00, 0x00, 0x56, 0xff, 0xff, 0xff,
    0x00, 0x00, 0x00, 0x01, 0x10, 0x00, 0x00, 0x00, 0x10, 0x00, 0x00, 0x00,
    0x05, 0x00, 0x00, 0x00, 0x1c, 0x00, 0x00, 0x00, 0xdc, 0xfe, 0xff, 0xff,
    0x0f, 0x00, 0x00, 0x00, 0x61, 0x72, 0x69, 0x74, 0x68, 0x2e, 0x63, 0x6f,
    0x6e, 0x73, 0x74, 0x61, 0x6e, 0x74, 0x33, 0x00, 0x01, 0x00, 0x00, 0x00,
    0x03, 0x00, 0x00, 0x00, 0x8e, 0xff, 0xff, 0xff, 0x00, 0x00, 0x00, 0x01,
    0x10, 0x00, 0x00, 0x00, 0x10, 0x00, 0x00, 0x00, 0x04, 0x00, 0x00, 0x00,
    0x1c, 0x00, 0x00, 0x00, 0x14, 0xff, 0xff, 0xff, 0x0f, 0x00, 0x00, 0x00,
    0x61, 0x72, 0x69, 0x74, 0x68, 0x2e, 0x63, 0x6f, 0x6e, 0x73, 0x74, 0x61,
    0x6e, 0x74, 0x32, 0x00, 0x01, 0x00, 0x00, 0x00, 0x08, 0x00, 0x00, 0x00,
    0xc6, 0xff, 0xff, 0xff, 0x00, 0x00, 0x00, 0x01, 0x10, 0x00, 0x00, 0x00,
    0x10, 0x00, 0x00, 0x00, 0x03, 0x00, 0x00, 0x00, 0x1c, 0x00, 0x00, 0x00,
    0x4c, 0xff, 0xff, 0xff, 0x0f, 0x00, 0x00, 0x00, 0x61, 0x72, 0x69, 0x74,
    0x68, 0x2e, 0x63, 0x6f, 0x6e, 0x73, 0x74, 0x61, 0x6e, 0x74, 0x31, 0x00,
    0x01, 0x00, 0x00, 0x00, 0x10, 0x00, 0x00, 0x00, 0x00, 0x00, 0x16, 0x00,
    0x18, 0x00, 0x14, 0x00, 0x00, 0x00, 0x10, 0x00, 0x0c, 0x00, 0x08, 0x00,
    0x00, 0x00, 0x00, 0x00, 0x00, 0x00, 0x07, 0x00, 0x16, 0x00, 0x00, 0x00,
    0x00, 0x00, 0x00, 0x01, 0x10, 0x00, 0x00, 0x00, 0x10, 0x00, 0x00, 0x00,
    0x02, 0x00, 0x00, 0x00, 0x1c, 0x00, 0x00, 0x00, 0x9c, 0xff, 0xff, 0xff,
    0x0e, 0x00, 0x00, 0x00, 0x61, 0x72, 0x69, 0x74, 0x68, 0x2e, 0x63, 0x6f,
    0x6e, 0x73, 0x74, 0x61, 0x6e, 0x74, 0x00, 0x00, 0x01, 0x00, 0x00, 0x00,
    0x20, 0x00, 0x00, 0x00, 0x00, 0x00, 0x16, 0x00, 0x1c, 0x00, 0x18, 0x00,
    0x00, 0x00, 0x14, 0x00, 0x10, 0x00, 0x0c, 0x00, 0x00, 0x00, 0x00, 0x00,
    0x08, 0x00, 0x07, 0x00, 0x16, 0x00, 0x00, 0x00, 0x00, 0x00, 0x00, 0x01,
    0x14, 0x00, 0x00, 0x00, 0x24, 0x00, 0x00, 0x00, 0x24, 0x00, 0x00, 0x00,
    0x01, 0x00, 0x00, 0x00, 0x40, 0x00, 0x00, 0x00, 0x03, 0x00, 0x00, 0x00,
    0xff, 0xff, 0xff, 0xff, 0xc8, 0x00, 0x00, 0x00, 0x03, 0x00, 0x00, 0x00,
    0x04, 0x00, 0x04, 0x00, 0x04, 0x00, 0x00, 0x00, 0x1d, 0x00, 0x00, 0x00,
    0x73, 0x65, 0x72, 0x76, 0x69, 0x6e, 0x67, 0x5f, 0x64, 0x65, 0x66, 0x61,
    0x75, 0x6c, 0x74, 0x5f, 0x69, 0x6e, 0x70, 0x75, 0x74, 0x5f, 0x6c, 0x61,
    0x79, 0x65, 0x72, 0x3a, 0x30, 0x00, 0x00, 0x00, 0x03, 0x00, 0x00, 0x00,
    0x01, 0x00, 0x00, 0x00, 0xc8, 0x00, 0x00, 0x00, 0x03, 0x00, 0x00, 0x00,
    0x07, 0x00, 0x00, 0x00, 0x70, 0x00, 0x00, 0x00, 0x54, 0x00, 0x00, 0x00,
    0x44, 0x00, 0x00, 0x00, 0x34, 0x00, 0x00, 0x00, 0x24, 0x00, 0x00, 0x00,
    0x14, 0x00, 0x00, 0x00, 0x04, 0x00, 0x00, 0x00, 0xb8, 0xff, 0xff, 0xff,
    0x19, 0x00, 0x00, 0x00, 0x00, 0x00, 0x00, 0x19, 0xc4, 0xff, 0xff, 0xff,
    0x09, 0x00, 0x00, 0x00, 0x00, 0x00, 0x00, 0x09, 0xd0, 0xff, 0xff, 0xff,
    0x28, 0x00, 0x00, 0x00, 0x00, 0x00, 0x00, 0x28, 0xdc, 0xff, 0xff, 0xff,
    0x11, 0x00, 0x00, 0x00, 0x00, 0x00, 0x00, 0x11, 0xe8, 0xff, 0xff, 0xff,
    0x16, 0x00, 0x00, 0x00, 0x00, 0x00, 0x00, 0x16, 0xf4, 0xff, 0xff, 0xff,
    0x03, 0x00, 0x00, 0x00, 0x00, 0x00, 0x00, 0x03, 0x0c, 0x00, 0x0c, 0x00,
    0x0b, 0x00, 0x00, 0x00, 0x00, 0x00, 0x04, 0x00, 0x0c, 0x00, 0x00, 0x00,
    0x46, 0x00, 0x00, 0x00, 0x00, 0x00, 0x00, 0x46
};
const unsigned int model_tflite_len = 11072;
